!
%
(
)
+
,
-
.
...
/
:
;
?
~
«
°
»
–
—
’
“
”
−
─
́
$
£
¥
€
0
00
000
0,1
0,2
0,3
0,4
04
0,5
0.5
0,6
0,7
07
0,8
0,9
09
1
10
10-@@
100
100-@@
1000
1000-@@
1002
1003
1005
1007
1009
10,1
101
1010
10-11
1011
10-12
10-15
1016
1019
102
1020
1022
1023
1025
1027
1029
103
1030
1031
1032
1035
1037
1038
1039
104
1040
1046
1048
105
1050
1052
1053
1055
1057
1058
1059
106
1060
1065
1068
107
1070
1071
1073
1076
1077
1079
108
1080
1087
1088
109
1090
1095
1097
1098
1,1
11
11-@@
110
1100
1101
1103
111
1110
1115
1118
112
1120
1121
1124
1125
1126
1127
113
1130
1131
1133
1134
1135
114
1140
1142
1143
1146
1149
115
1150
1154
1157
116
1160
1162
1165
1166
1167
1169
117
1170
1172
1173
1178
1179
118
1180
1182
1185
1186
1187
1189
119
1190
1191
1192
1193
1195
1198
1199
11-ш@@
1,2
1-2
12
12-@@
120
1200
1201
1203
1204
1206
1207
121
1210
1214
1215
1217
1218
122
1220
1221
1222
1223
1225
1226
1227
123
1230
1231
1232
1234
1235
1238
124
1240
1241
1245
12,5
125
1250
1252
1253
1254
1255
1256
1257
1258
1259
126
1260
1262
1263
1264
1265
1266
1267
1268
1269
12,7
127
1270
1271
1272
1273
1274
1277
128
1280
1281
1282
1283
1284
1285
1286
1287
1288
129
1290
1292
1293
1294
1295
1296
1,3
13
130
130-@@
1300
1301
1304
1307
1309
131
1310
1312
1313
1318
132
1320
1321
1324
1326
1327
1328
1329
133
1330
1332
1333
1334
1335
1336
1337
134
1340
1342
1347
1349
135
1350
1352
1354
1356
1357
1358
1359
136
1360
1361
1362
1368
1369
137
1370
1372
1373
1375
1376
1377
1378
1379
138
1380
1381
1386
1388
139
1390
1391
1392
1394
1395
1396
1397
1398
1399
13-ш@@
14
14-@@
140
140-@@
1400
1402
1403
1404
1405
1406
1407
1408
1409
141
1410
1412
1414
14-15
1416
1417
1419
142
1420
1424
1426
1427
1428
143
1430
1431
1433
1435
1437
144
1440
1441
1443
1444
1445
1446
1447
1448
1449
145
1450
1451
1452
1455
1457
1459
146
1460
1463
1465
1466
1467
1468
1469
147
1470
1471
1472
1473
1475
1476
1478
1479
148
1480
1481
1482
1483
1485
1487
1488
1489
149
1490
1491
1492
1493
1494
1498
1499
14-ш@@
1,5
15
15-@@
150
1500
1501
1502
1503
1504
1505
1506
1507
1508
151
1510
1511
1512
1513
1514
1517
1518
1519
152
1520
1521
1522
1523
1524
1526
1527
1528
1529
153
1530
1531
1532
1533
1534
1535
1536
1538
154
1540
1541
1542
1543
1544
1545
1546
1547
1548
1549
155
1550
1551
1553
1554
1555
1556
1559
156
1560
1561
1562
1563
1564
1565
1566
1567
1568
1569
157
1570
1571
1573
1574
1575
1576
1579
158
1580
1581
1583
1584
1585
1587
1588
1589
159
1590
1592
1593
1594
1595
1596
1597
1598
1599
1,6
16
16-@@
160
1600
1601
1602
1603
1604
1605
1606
1609
161
1610
1611
1612
1613
1614
1616
1617
1618
1619
162
1620
1621
1622
1623
1624
1625
1626
1627
1628
1629
163
1630
1632
1634
1635
1636
1637
1638
1639
164
1640
1641
1642
1643
1644
1645
1646
1647
1648
165
1650
1651
1652
1653
1654
1655
1657
1658
1659
166
1660
1661
1662
1663
1664
1666
1667
1668
1669
167
1670
1671
1672
1673
1674
1675
1676
1677
1679
168
1680
1681
1682
1683
1684
1685
1686
1687
1688
1689
169
1690
1691
1692
1693
1694
1695
1696
1697
1698
1699
1,7
17
17-@@
170
170-@@
1700
1701
1702
1703
1704
1705
1706
1707
1708
171
1710
1711
1712
1713
1714
1715
1716
1717
1718
1719
172
1720
1721
1722
1723
1724
1725
1726
1727
1728
1729
173
1730
1731
1732
1733
1734
1735
1736
1737
1738
1739
174
1740
1741
1742
1743
1744
1745
1746
1747
1748
1749
175
1750
1751
1752
1753
1754
1755
1756
1757
1758
1759
176
1760
1761
1762
1763
1764
1765
1766
1767
1768
1769
177
1770
1771
1772
1773
1774
1775
1776
1777
1778
1779
178
1780
1781
1782
1783
1784
1785
1786
1787
1788
1789
179
1790
1791
1792
1793
1794
1795
1796
1797
1798
1799
1,8
18
18-@@
180
1800
1801
1802
1803
1804
1805
1806
1807
1808
1809
181
1810
1811
1812
1813
1814
1815
1816
1817
1818
1819
182
1820
1821
1822
1823
1824
1825
1826
1827
1828
1829
183
1830
1831
1832
1833
1834
1835
1836
1837
1838
1839
184
1840
1841
1842
1843
1844
1845
1846
1847
1848
1849
185
1850
1851
1852
1853
1854
1855
1856
1857
1858
1859
186
1860
1861
1862
1863
1864
1865
1866
1867
1868
1869
187
1870
1871
1872
1873
1874
1875
1876
1877
1878
1879
188
1880
1881
1882
1883
1884
1885
1886
1887
1888
1889
189
1890
1891
1892
1893
1894
1895
1896
1897
1898
1899
18-ш@@
1,9
19
19-@@
190
1900
1901
1902
1903
1904
1905
1906
1907
1908
1909
191
1910
1911
1912
1913
1914
1915
1916
1917
1918
1919
192
1920
1920-ш@@
1921
1922
1923
1924
1925
1926
1927
1928
1929
193
1930
1930-жыл@@
1931
1932
1933
1934
1935
1936
1937
1938
1939
194
1940
1941
1941-1945
1942
1943
1944
1945
1946
1947
1948
1949
195
1950
1951
1952
1953
1954
1955
1956
1957
1958
1959
196
1960
1961
1962
1963
1964
1965
1966
1967
1968
1969
197
1970
1970-жыл@@
1970-ш@@
1971
1972
1973
1974
1975
1976
1977
1978
1979
198
1980
1980-жыл@@
1980-ш@@
1981
1982
1983
1984
1985
1986
1987
1988
1989
199
1990
1990-жыл@@
1991
1992
1993
1994
1995
1996
1997
1998
1999
19-ш@@
1-ш@@
2
2.0
20
20-@@
200
200-@@
2000
2000-жыл@@
2001
2002
2003
2004
2005
2006
2007
2008
2008-2009
2009
201
2010
2010-2014
2011
2012
2013
2014
2014-2015
2015
2016
2016-2017
2017
2017-@@
2017-18
2017-2018
2018
2018-2019
2018-ш@@
2019
202
2020
2021
2022
2023
2024
20-25
2025
2026
2027
2028
2029
203
20-30
2030
2035
204
2040
205
2050
206
2060
2064
2067
207
2070
208
2080
209
2090
20-ш@@
2,1
21
210
2100
211
212
213
214
215
216
217
218
219
21st
2,2
22
22-@@
220
221
222
223
224
225
226
227
228
229
2,3
2-3
23
230
231
232
233
234
235
236
237
238
239
2,4
24
240
241
242
243
244
245
246
247
248
249
2,5
25
250
250-@@
251
252
253
254
255
256
257
258
259
26
26-@@
260
261
262
263
264
265
266
267
268
269
2,7
27
270
271
272
273
274
275
276
277
278
279
2,8
28
28-@@
280
281
282
283
284
285
286
287
288
289
2,9
29
290
291
292
293
294
295
296
297
298
299
2-ш@@
3
30
30-@@
300
300-@@
301
302
303
304
30-40
305
306
307
308
309
3,1
31
310
311
312
313
314
315
316
3166
317
318
319
3,2
32
320
321
322
323
324
325
326
327
328
329
3,3
33
330
331
332
333
334
335
336
337
338
339
3,4
3-4
34
340
341
342
343
344
345
346
347
348
349
3,5
35
350
351
352
353
354
355
356
357
358
359
3,6
36
360
361
363
364
365
366
367
368
369
3,7
37
370
371
372
373
374
375
376
377
378
379
3,8
38
380
381
382
383
384
385
386
387
388
389
3,9
39
390
391
392
393
394
395
396
397
398
399
3D
3Д
3-ш@@
4
4.0
40
40-@@
400
401
402
403
404
405
406
407
408
409
41
410
411
412
413
414
415
416
417
418
419
42
420
421
422
423
424
425
426
427
428
429
43
430
431
432
433
434
435
436
437
438
439
4,4
44
440
441
442
443
444
445
446
447
448
449
4,5
4-5
45
450
451
452
453
454
455
456
457
458
459
4,6
46
460
461
462
463
464
465
466
467
468
469
4,7
47
470
471
472
473
474
475
476
477
478
479
48
480
481
482
483
484
485
486
487
488
489
4,9
49
490
491
492
493
494
495
496
497
498
499
4G
4-ш@@
5
50
50-@@
500
500-@@
5000
501
502
503
504
505
506
50-60
507
508
509
51
5-10
510
511
512
513
514
515
516
517
518
519
5,2
52
520
521
522
523
524
525
526
527
528
529
5,3
53
530
531
532
533
534
535
536
537
538
539
5,4
54
540
541
542
543
544
545
546
547
548
549
5,5
55
550
551
552
553
554
555
556
557
558
559
5-6
56
560
561
562
563
564
565
566
567
569
57
570
571
572
573
575
576
577
579
58
580
581
582
583
584
585
586
587
588
589
59
590
591
592
593
594
595
596
597
598
599
6
60
60-@@
600
600-@@
601
602
603
604
605
606
607
609
61
610
612
613
614
615
616
617
618
619
6,2
62
620
621
622
623
624
625
626
627
628
629
6,3
63
630
631
632
633
634
635
636
637
638
639
6,4
64
640
641
642
643
644
645
647
648
649
6,5
65
650
651
652
653
654
655
656
657
658
659
6,6
66
660
661
662
663
664
665
666
667
668
669
6,7
67
670
671
672
673
674
675
676
677
678
679
68
680
681
682
683
684
685
686
687
688
689
6,9
69
690
691
692
693
694
695
696
697
698
699
6-ш@@
7
7-@@
70
70-@@
700
700-@@
701
702
704
705
706
707
708
709
70-ш@@
71
710
711
712
713
714
716
717
718
719
72
720
721
722
723
724
725
726
727
728
729
7,3
73
730
731
734
737
738
739
74
740
741
742
743
744
745
746
747
748
7,5
75
750
751
752
754
755
756
757
758
76
760
762
763
765
766
7,7
77
770
771
772
774
775
776
777
7-8
78
780
781
782
784
786
787
788
79
790
797
798
799
8
80
80-@@
800
800-@@
804
805
809
81
810
811
812
814
815
817
819
82
820
823
825
83
830
833
838
84
840
846
848
849
8,5
85
850
855
858
86
860
864
868
869
87
870
873
88
883
884
887
8,9
89
890
891
892
896
9
9-@@
90
90-@@
900
900-@@
902
905
907
908
909
90-90-90
90-ш@@
&#91;
91
910
92
920
922
923
925
927
93
930
933
934
935
936
9,4
94
940
942
943
946
95
950
956
958
96
960
961
963
965
966
967
969
97
970
972
973
9,8
98
980
986
987
988
989
99
990
992
996
998
999
A
Acer
Adobe
AG
Air
Airbus
Airlines
Alibaba
Almaty
alphabet
Alphabet
Amazon
Amazon-@@
&amp;
AMR
AMR-@@
an
and
AND
Android
&apos;
&apos;s
&apos;А@@
&apos;Абб@@
&apos;Агонья
&apos;Ад@@
&apos;Адидж@@
&apos;Аду@@
&apos;Ажен@@
&apos;Аль@@
&apos;Альб@@
&apos;Альермон
&apos;Альпаго
&apos;Ан
&apos;Анджело
&apos;Андре@@
&apos;Антонио
&apos;Арманьяк
&apos;Арно
&apos;Асти
&apos;Е@@
&apos;Евек
&apos;Еглиз
&apos;Екссиде@@
&apos;Ель
&apos;Еневаль
&apos;Епин
&apos;Ер@@
&apos;Еро
&apos;Еско
&apos;Ивре@@
&apos;Иль
&apos;О@@
&apos;Оберош
&apos;Од
&apos;Ольо
&apos;Он@@
&apos;Опиталь
&apos;Орб@@
&apos;Орге@@
&apos;Орецц@@
&apos;Уаз
&apos;Эль@@
&apos;Эмилия
App
Apple
Aramco
ARSA-@@
art
Art
Article
Asia
Astana
ASTANA
AT
Atlas
Atomico
Audi
Auto
AutoWikiBrowser
Aybyn
AСEAN
Babel
BAFTA
Ballet
Band
Bank
Barclays
Barys
BAT
BBC
BBC-@@
Beatles
Berkshire
bg
Big
Biology
Bizkit
Bloomberg
Blue
bnews.kz
BNews.kz
BNP
Boeing
Bombardier
Bot
box
Box
Box-header
Boy
Brent
Brexit
Brexit-@@
Brothers
Business
button
c
C
Calendar
Call
Cambridge
ca-news
Cantharis
Carrier
CASA
Category
CDU
Center
Century
Challenges
Chevrolet
China
Chrysler
Cinema
Cisco
Cite
city
Clickable
CNN
Co
CO2
color
Columbia
Comics
Commons
Company
Computer
config
Convert
Coord
core
Corporation
COSCO
Council
Counter-Strike
Country
cover
CSU
Cup
Cycling
Daily
data
Data
Data-@@
Database
date
de
Dell
Der
Desht-I-Kipchak
Deutsche
Dialogue
Discovery
doc
Doing
Duty
E
Eclipse
Economist
edit
Edit
Electric
Electronics
En
end
Engineering
Entertainment
Ertis
ESM
Eurasian
Eurosport
Eurovision
Eurovision-2018
Evolution
EXPO
EXPO-@@
EXPO-2017
ExxonMobil
Facebook
Facebook-@@
Fair
FC
Ferrari
Festival
Fiat
Fidesz
field
FIFA
Film
Finance
Financial
finprom.kz
fintech
FinTech
Five
Flag
Food
Football
for
Forbes
Fox
France
Front
für
G
G20
G20-@@
G7
Gala
Galaxy
game
Garage
General
Geobox2
Geographic
G-Global
Global
Goldman
Google
Google-@@
Grand
Group
GROUP
GSDEER
HAB
handler
Hawk
HD
Hill
House
How
HTC
Huawei
Hub
hukou
Hyperloop
I
IBM
IC
icon
II
III
image
in
Inc
Independent
Index
Infobox
in-game
Intel
International
Internet
Invest
INVEST
IOS
IPad
iPhone
IPhone
is
ISIS
ISM
ISO
ISOCALENDAR
It
IT
IT-стартап@@
IT-технология@@
IUCN
IV
IX
Java
Journal
JP
Junior
Kapital.kz
KASE
Kaz
Kazakh
KAZAKH
Kazakhstan
KAZAKHSTAN
KAZENERGY
KazSat-2
Kingdom
KIOGE
kkwiki
KZ
L
L-188
L2D
La
LA
Lamborghini
Language
Last
Left
Lega
Lehman
Lenovo
LG
license
Life
Limp
link
Lockheed
logo.png
logo.svg
London
LTD
LTE
Lumia
M
Mac
MacBook
Made
Manchester
Marche
Mars
Marvel
McKinsey
Media
Mercedes-Benz
meta
MGI
MGI-@@
Microsoft
Miles
Modern
Moody
Morgan
Motors
MTVA-@@
Multi-listen
Musical
MUSICAL
My
NAFTA
name
NASA
Nasdaq
NASDAQ
National
Nature
NB500
Need
Network
NETWORK
New
News
NGC
Nissan
No
№
Nokia
Non-free
Norwegian
Notre
O
Obamacare
OECD
of
Oil
on
One
Online
OONI
Opel
Open
OPERALIA
Oracle
order.jpg
P
page
Pagetype
Paribas
Paris
Park
Party
PAS
PAS-@@
Pay
PC
Peace
People
PH
PHD
PHP
Pictures
PlayStation
PM2.5
PM2.5-@@
PMI
Poor
Porsche
Post
Potd
PRD
Press
PRESS
Pro
Prosperity
Protected
Protocol
Qazaq
Qazaqstan
QE
Queen
&quot;
Rakuten-@@
ranking.kz
Ranking.kz
Records
Republic
request
Reuters
Reviews
Rolls-Royce
Royal
s
S
Sachs
Sachs-@@
Samsung
SAPIENZA
Saudi
screenshot
SDR
Seas
Shell
Shipping
Sky
smart
Smart
Soccer
Solyndra
Sony
SPD
Speed
spirit
Spirit
Sports
SQL
Standard
Star
Starbox
star.jpg
Startup
Store
Str
Street
Studio
Submit
Summit
SWIFT
T
tag
tags
Tax
Taxobox
Team
Technologies
templates
Tencent
Tengri
Tesla
text
TGV
THAAD
the
The
THE
Theft
Time
Times
title
to
Top
Tor
TOUIRSM
tourism
Tourism
TOURISM
Toyota
Travel
Trek
trend
Turkvizyon
tv
TV
Twitter
Twitter-@@
Uber
UBS
UCI
UMNO
UMNO-@@
Union
United
University
UNIVERSITY
URL
USA
USAID
User
ushin.jpg
UTC
V
VI
VII
VIII
VISA
Visual
Volkswagen
Volvo
VІІ
Wall
Walmart
Warcraft
Washington
Water
Way
Week
WhatsApp
Windows
with
wizard
WOMEN
World
x
X
XI
XII
XIII
XIV
XIX
XV
XVI
XVII
XVIII
XX
XXI
Yahoo
York
You
YouTube
Zholy
а
а@@
А
Аарон
Аб@@
аба@@
Аба@@
Абаев
АБАЕВ
Абай@@
АБАЙ
Абай-Верн
абаттандыр@@
Абашидз@@
АБАШКИНА
Аббас
Аббот
Абд
Абдул
Абдулл@@
Абдуллаев
АБДУЛЛАЕВ
Абдуллаһ
Абдуррахман
Абель
Абердин
аберрация
Абзал
АБЗАЛ
абонет@@
Абра@@
Абраха@@
Абрикосов
абсолю@@
Абсолю@@
Абсолют
Абу-Даби
Абхаз
Абхазия
Абыла@@
АБЫЛАЙ
абыро@@
абырой@@
Абэ
абэномика@@
Ав@@
Авангард
АВАХРИ
Август
Авейр@@
Аверон
авиация
авиация@@
Авиация
АВИАЦИЯ
авиациялық
Авиациялық
Авил@@
Авилл@@
Аврор@@
Австралия
Австралия@@
АВСТРАЛИЯ
Австрия
Австрия@@
авто
авто@@
Авто@@
автобус
автобус@@
автожол
автокөлік
автокөлік@@
Автокөлік
Автокөлік@@
автократ@@
автократиялық
автома@@
Автома@@
автомагистраль@@
автоматтандыр@@
Автоматтандыр@@
автоматтандырыл@@
автомобиль
автомобиль@@
Автомобиль
АВТОМОБИЛЬ
автоно@@
автономиял@@
Автономиял@@
автономиялық
Автономиялық
АВТОНОМИЯЛЫҚ
автор@@
Автор@@
автори@@
авторитариз@@
авторитарлық
Авторитарлық
авторлық
Авторлық
АВТОРЫ
Автотроф@@
Аг@@
Ага@@
аген@@
Аген@@
агент@@
агенттіг@@
Агенттіг@@
АГЕНТТІГІ
АГЕНТТІГІНІҢ
агенттік@@
Агенттік@@
АГЕНТТІК
АГЕНТТІКТІҢ
Аги@@
агломерация@@
АГНЕСЕ
Агр@@
аграрлық
агрессив@@
АГРИС
агроном@@
АГРОНОМ
агроөнеркәс@@
агроөнеркәсіп@@
Агу@@
ағ@@
Ағ@@
аға@@
АҒА
ағай@@
Ағай@@
ағайын@@
ағайынды@@
ағарт@@
Ағарт@@
ағартуш@@
ағартушылық
ағаш
ағаш@@
Ағаш
Ағаш@@
ағз@@
Ағз@@
ағза@@
ағы@@
ағыл@@
ағылш@@
Ағылш@@
ағым@@
Ағым@@
ағын@@
ағыс
ағыс@@
ад@@
Ад@@
ада@@
Ада@@
адал
адалдығ@@
адам@@
Адам@@
АДАМ
адамгершілік
адамза@@
адамзат
адамзат@@
Адамзат
адами
Адамс
Адамян
адастыр@@
АДБ
адвокат@@
Аденауэ@@
Адольф
адрес
Адриан
Адриано
Адыгея
Аж@@
ажал
ажыра@@
ажырамас
ажырас@@
ажырат@@
аз
аз@@
Аз
Аз@@
аза@@
азай@@
азайт@@
азайту@@
азайтыл@@
азама@@
Азама@@
азамат
азамат@@
Азамат
Азамат@@
АЗАМАТ
азаматтығ@@
азаматтық@@
АЗАМАТТЫҚ
азат
Азат
азаю@@
азая
азая@@
азғанта@@
азда@@
аздығ@@
Азиз
азия
Азия
Азия@@
АЗИЯ
АЗИЯДАҒЫ
азиялық
Азиялық
Азия-Тынық
аз-маз
Азо@@
Азот
азшылық
азшылық@@
азығ@@
азық
азық-түлік
азық-түлік@@
Азық-түлік
азырақ
Аи@@
АИВ
АИДА
ай
ай@@
Ай
Ай@@
АЙБЕК
АЙГҮЛ
айғағ@@
айғақ@@
айғақта@@
Айд@@
айда@@
АЙДАНА
АЙДАР
АЙДАРБАЕВ
Айдарл@@
Айдахо
айдаһ@@
Айдаһ@@
АЙДОС
айды@@
АЙДЫН
АЙЖАН
Айзенберг
айқ@@
Айқ@@
айқа@@
айқабағ@@
айқайла@@
айқар@@
айқын@@
айқында@@
айқындал@@
айлағ@@
айлақ@@
Айланд
айлық
Айлэнд
аймағ@@
АЙМАҒЫНЫҢ
аймақ@@
Аймақ@@
аймақаралық
АЙМАҚТЫҚ
Айман
АЙМАН
Айманов
айна@@
айнал@@
Айнал@@
айнала@@
айналасындағы@@
айналғанда@@
айналдыр@@
айналдыру@@
айналма@@
Айналмал@@
айналу@@
айналы@@
айналым@@
айналыс@@
Айнтрахт
АЙНҰР
Айнымал@@
Айов@@
Айрон
Айрық
айрықш@@
айрыл@@
Айсл
айт
айт@@
Айт@@
айталық
Айталық
айтарлықта@@
АЙТЖАНОВА
айтқанда@@
айтқанында@@
Айтматов
Айтматов@@
айтп@@
айтпа@@
айту@@
айтул@@
Айтул@@
Айтуларынш@@
айтыл@@
айтылғанда@@
айтылма@@
Айш@@
айшықта@@
айығ@@
айып@@
айыппұл
айыпт@@
айыпта@@
айыптал@@
айыптау@@
айыр@@
айырбас
айырбаста@@
айырбастал@@
айырма@@
айырмашылығ@@
айырмашылық
айырмашылық@@
айырыл@@
айырыс@@
ак@@
Ак@@
АКАДЕМИГІ
академик
академик@@
АКАДЕМИК
академия
академия@@
Академия@@
академиялық
Академиялық
АКАДЕМИЯЛЫҚ
АКАДЕМИЯСЫ
АКАДЕМИЯСЫНЫҢ
Аквитания
аккаунт@@
аккумулятор@@
АКР
Акрс
Акрэс
Аксель
акт
актер@@
АКТЕР
актив
актив@@
Актив@@
акті@@
Акті@@
актор@@
актри@@
актриса@@
АКТРИСА
АКТРИСАСЫ
акул@@
акула@@
Акустик@@
Акустикалық
акциз@@
акционер@@
акция
акция@@
Акция@@
ақ
ақ@@
Ақ
Ақ@@
АҚ
ақа@@
Ақан
ақау@@
Ақбас
Ақбауы@@
Ақж@@
ақиқа@@
ақиқат
ақиқат@@
Ақкөл
аққ@@
Аққ@@
АҚҚ
Аққанат
Аққу@@
аққұ@@
АҚМАРАЛ
Ақмол@@
Ақо@@
ақпан
ақпан@@
Ақпан
ақпар@@
ақпара@@
Ақпара@@
ақпарат
ақпарат@@
Ақпарат
АҚПАРАТ
АҚПАРАТТЫҚ
ақпараттық-коммуникациялық
Ақс@@
Ақса@@
ақта@@
Ақта@@
АҚТАЕВА
ақтал@@
АҚТАУ
Ақто@@
Ақтөб@@
Ақтөбе@@
АҚТӨБЕ
Ақтөс
ақуыз@@
ақш@@
Ақш@@
АҚШ
АҚШ-@@
АҚШ@@
ақша@@
Ақша@@
ақша-кредит
ақшала@@
ақша-неси@@
Ақша-неси@@
Ақши
ақы
ақы@@
Ақы@@
ақыл@@
Ақыл
Ақыл@@
АҚЫЛБЕК
ақылдас@@
ақыл-о@@
ақымақ@@
ақын@@
АҚЫН
АҚЫНДАРЫ
ақын-жазушы@@
ақырғ@@
ақырында@@
АҚЫШЕВ
ал
ал@@
Ал
Ал@@
ала@@
Ала@@
алаб@@
алабұға@@
Алав@@
Алай@@
алайда
Алакөл
Алан
АЛАН
алаң@@
алаңда@@
алаңдат@@
алаңдаушылық
Алата@@
алатында@@
Алаш
Албани
Албания
Албион
Алв@@
алгебр@@
Алгебр@@
Алгебралық
алгорит@@
алгоритм@@
Алгоритм@@
алғ@@
алға@@
алғаш
алғаш@@
Алғаш
алғашқ@@
Алғашқ@@
АЛҒАШҚЫ
алғыс
алғыс@@
Алғыс
алд@@
Алд@@
алда@@
алдын-ал@@
Алдын-ал@@
алдыңғ@@
Алдыңғ@@
алдыр@@
Алекс
Алексан@@
Александ@@
Александр@@
АЛЕКСАНДР
Александри@@
Александрия
Александров
Александрович
Александровн@@
Александрово
Алексе@@
Алексеев
Алексеевич
Алексеевн@@
АЛЕКСЕЙ
Ален
АЛЕНА
Алессандро
Алжи@@
АЛИЕВ
Аликан@@
алкоголь
Алкоголь@@
алқа@@
алқаб@@
алқап@@
АЛҚАСЫНЫҢ
Алл@@
Алла@@
Аллейр@@
Аллен
Аллендорф
Алли
алм@@
Алм@@
алма@@
Алма@@
АЛМА
АЛМАГҮЛ
алмас
алмас@@
Алмас
АЛМАС
алмастыр@@
алмасу@@
Алматы@@
АЛМАТЫ
Алматылық
алмау@@
алпауыт
алпауыт@@
АЛПЫСБАЕВ
Алт@@
Алта@@
Алту-Алегри
алты
алтын
алтын@@
АЛТЫНАЙ
АЛТЫНБЕК
Алтынемел
АЛТЫНЕМЕЛ
Алтынсарин
алтынш@@
Алтынш@@
алу@@
алуан
алу-сат@@
алуш@@
алушы@@
Алфавит
алшақ
алшақ@@
алшақта@@
алшақтық@@
алым@@
алын@@
алынба@@
алып@@
алыс
алыс@@
Алыс@@
алыс-беріс
алыс-жақ@@
алыста@@
Аль@@
Альб@@
Альбасе@@
Альбер@@
Альберт
АЛЬБЕРТ
Альберто
альбом@@
Альбрехт
Альварес
Альго@@
Альмерия
Альп@@
Альпі@@
Альпілік
Альпі-Марити@@
Альсдорф
Альтай@@
Альтенбург
Альф@@
Альфонсо
Альфред
альян@@
Альян@@
альянс
альянс@@
алюмини@@
Алюмини@@
Аляск@@
Ам@@
Амазон
амал@@
аман
Аман
Аманге@@
АМАНГЕЛДІ
АМАНЖОЛ
амбиция@@
амбициялық
Америк@@
америка@@
Америка@@
америкалық
америкалық@@
Америкалық
Америкалық@@
американдық@@
Американдық@@
Ами@@
Амин
АМИНОВА
АММАН
Амп@@
Амстерда@@
Аму@@
Амхерст
Ан@@
ана
ана@@
Ана@@
анағұрл@@
Анаклия
анализ
Аналитикалық
Аналық
АНАР
Анастасия
Анатоли@@
АНАТОЛИЙ
Анатольевич
анатомия@@
Анатомия
Ангел@@
Англия
Англия@@
Ангол@@
Ангуле@@
Ангус
Анд
Андалусия
анда-сан@@
Андерс
Андерсон
Андже@@
Анджело
Андовэ@@
Андорр@@
Андр@@
АНДРАШ
Андре@@
АНДРЕА
Андреас
АНДРЕАС
Андреев
Андреевич
АНДРЕЙ
Андрес
Андроме@@
Анж@@
Анжелес
Ани@@
анимациялық
Анкар@@
Анкара@@
Анн@@
АННА
аннексияла@@
Анри
ансамбл@@
АНСАМБЛІНІҢ
ансамбль@@
ант
Антаркти@@
Антарктика@@
Антарктикалық
антибиотик@@
Антигу@@
Антикалық
Антиль
антиядролық
антология@@
Антон
АНТОН
Антони
Антони@@
Антонин
Антонио
Антонов
Антонович
антрополог@@
антропология
Антуан
Ану@@
Анхель
анық
анықт@@
анықта@@
Анықта@@
анықтал@@
анықтау@@
аң
аң@@
аңғ@@
аңғал
аңғар@@
аңғарт@@
аңд@@
аңса@@
аңыз
аңыз@@
Аос@@
ап@@
Ап@@
апа@@
апар@@
апат
апат@@
Апи@@
Аполлон
АППАЗОВ
аппар@@
аппара@@
аппарат
аппарат@@
Аппэ
апта@@
Апта@@
апталығ@@
апталық
Аптон
ар
ар@@
Ар@@
ара
ара@@
Ара@@
араб
Араб
Араб-Израиль
арабия@@
Арабия@@
Арагон
аражегіш
араздық@@
арал@@
Арал
Арал@@
арала@@
аралама@@
аралас
аралас@@
Аралас
араласпа@@
араласу@@
АРАЛБЕКОВА
аралығ@@
аралық
аралық@@
Аралық
Аран@@
Арарат
Арб@@
арба@@
арбитраж
арбитраж@@
АРВ
Аргентин@@
Аргентина@@
аргумент
аргумент@@
арғ@@
ардаг@@
АРДАГЕРІ
АРДАҚ
Арденн@@
Ардеш
арен@@
Арен@@
арена@@
Ареццо
Ареяш
арзан
арзан@@
арзанда@@
арзандат@@
Ари@@
Аризон@@
Аристотель
Арифметикалық
Арк
Арк@@
Аркади@@
Аркадьевич
Арканзас
Аркол@@
Аркон@@
Арктик@@
Арктикалық
арқа@@
арқала@@
арқылы
АРЛАН
Арлингтон
арма@@
Армави@@
арман@@
Арман
АРМАН
арманда@@
Армения
Армения@@
армия@@
Армия
Армо@@
Армстронг
Армян
арн@@
Арн@@
арна@@
Арнай@@
арнайы
АРНАЙЫ
арнал@@
АРНАСЫНЫҢ
Арнольд
арп@@
арпалыс@@
Арро@@
арсенал@@
Арсенал
арт@@
Арт
Арт@@
Арте@@
арти@@
артиллерия
артис@@
АРТИСІ
артқандығ@@
арттыр@@
арттыру@@
арту@@
Арту@@
артықшылығ@@
артықшылық
артықшылық@@
артыл@@
артынш@@
артыр@@
Архангельск
археолог@@
АРХЕОЛОГ
археология
археология@@
АРХЕОЛОГИЯ
археологиялық
Археологиялық
архив@@
Архимед
архитекто@@
АРХИТЕКТОР
архитектур@@
архитектура@@
архитектуралық
Арч@@
Аршал@@
ары
арыл@@
арылт@@
Арыс
Арыс@@
арыста@@
АРЫСТАН
АРЫСТАНБЕК
АРЫСТАНБЕКОВА
Арьеж
ас
ас@@
Ас
Ас@@
аса
Асамо@@
АСЕАН
АСЕАН-@@
Асқ@@
асқақта@@
АСҚАР
Аслан
АСЛАН
Асп@@
аспа@@
аспаб@@
Аспаз@@
АСПАЗ
аспал@@
аспан
Аспан
аспанда@@
аспап@@
Аспап@@
аспекті@@
ассамблея@@
Ассамблея
Ассамблея@@
АССАМБЛЕЯСЫ
АССАМБЛЕЯСЫНЫҢ
Ассимиляция
Ассирия
ассоциация@@
АССОЦИАЦИЯСЫНЫҢ
аст@@
аста@@
астам@@
Астан@@
астана@@
Астана@@
АСТАНА
Астаналық
Астана-Технополис
Астрахан
Астрахань
астроном@@
Астрономия
Астрономиялық
астық@@
асу@@
Асуан
асхана@@
Асхат
АСХАТ
асы@@
асығ@@
асық
асық@@
Асық
АСЫҚ
асыл
асыл@@
Асыл
Асыл@@
АСЫЛМҰРАТОВА
асыр@@
асыра@@
асырма@@
асыру@@
асырыл@@
Асэнс
ат
ат@@
Ат
Ат@@
ата
ата@@
Ата@@
ата-ана@@
ата-баба@@
Атабаск@@
атағ@@
атақ@@
Атақ@@
атал@@
Атал@@
аталмыш
Аталмыш
аталым@@
Атаме@@
АТАМЕКЕН
атан@@
атау@@
Атбас@@
Ати
Аткинсон
атқ@@
атқар@@
Атқар@@
атқаруш@@
Атқаруш@@
АТҚАРУШЫ
атқарыл@@
Атлан@@
Атлант
Атлантик
Атлантика@@
Атлантикалық
Атлас
атлет@@
атлетик@@
атлетика@@
Атлетико
атмосфер@@
Атмосфер@@
атмосфера@@
Атмосфера@@
Атмосфералық
ато@@
Ато@@
Атолл
Атом@@
АТОМ
атсал@@
атсалыс@@
атта@@
аттан@@
аттас
ату@@
атыл@@
атын@@
АТЫНДАҒЫ
Атыра@@
АТЫРАУ
атыс
ау@@
Ау
Ау@@
ауа@@
Ауа@@
ауа-рай@@
Аубурн
Аугсбург
Аугус@@
Аугусто
Ауғанс@@
Ауғанста@@
Ауғанстан@@
АУҒАНСТАН
АУҒАНСТАННЫҢ
ауда@@
аудан@@
АУДАНДЫҚ
АУДАНЫ
АУДАНЫНЫҢ
аудар@@
Аудар@@
аударма@@
АУДАРМА
аудармаш@@
аудармашы@@
АУДАРМАШЫ
аударт@@
аудару@@
аударушы@@
аударыл@@
аударылма@@
аударым@@
Аударыс@@
аудио
аудитория
аудитория@@
ауз@@
аукцион@@
Аукцион
ауқ@@
Ауқ@@
ауқа@@
ауқым@@
аула@@
аулақ
аумағ@@
Аумағ@@
аумақ@@
Аумақ@@
аумалы-төкпел@@
аур@@
Аур@@
Аурих
ауру@@
аурухана@@
Аустралия
Аустрия
Аустрия@@
Аутиз@@
аутсорсинг
ауы@@
Ауы@@
ауыз
ауыз@@
Ауыз
ауызды@@
ауыздықта@@
ауыл
ауыл@@
Ауыл
АУЫЛ
АУЫЛДЫҚ
ауылшаруашылығ@@
Ауылшаруашылығ@@
АУЫЛШАРУАШЫЛЫҒЫ
ауылшаруашылық
Ауылшаруашылық
АУЫЛШАРУАШЫЛЫҚ
АУЫЛЫНЫҢ
ауыр@@
ауыртпалығ@@
ауыс@@
ауыстыр@@
ауыстырыл@@
ауысу@@
ауытқ@@
Ауэрбах
Аф@@
Афанасьевич
Афин@@
АФК
Африк@@
Африка@@
АФРИКА
африкалық
Африкалық
Аффи@@
АХАТ
АХҚ
АХҚО
Ахмад
Ахмед
АХМЕД
Ахмединежад@@
АХМЕДОВ
Ахмет
АХМЕТ
Ахметжан
АХМЕТЖАН
Ахметов
АХМЕТОВ
ахуа@@
ахуал
ахуал@@
аш@@
Аш@@
Аша@@
Ашанти
Ашин@@
АШМ
ашп@@
ашпа@@
ашу@@
ашул@@
ашулан@@
ашуландыр@@
Ашхабад
ашық
ашық@@
Ашық
АШЫҚБАЕВ
ашықтығ@@
ашықтық@@
ашыл@@
ашылма@@
ашылу@@
ащ@@
Ащ@@
АЭА
аэроғарыш
АЭРОҒАРЫШ
АЭФ
АЭФ2018
аю
аю@@
Аю@@
ая@@
АЯ
Аягөз
аяғ@@
аяқ
аяқ@@
аяқ-ки@@
аяқта@@
аяқтал@@
аяқталма@@
Аяқталма@@
аялда@@
АЯН
Аят
аяу@@
Ә
әб@@
Әб@@
ӘБДІҒАЛИҰЛЫ
Әбдіқалықов@@
ӘБДІҚАЛЫҚОВА
Әбдірахманов
ӘБДІРАХМАНОВ
Әбдісағ@@
Әбдісағын@@
ӘБДІСАҒЫН
Әбдуллино
ӘБЕНОВА
Әбілқайы@@
Әбілхан
Әбіш
ӘБІШЕВА
Әбішұл@@
ӘБУОВ
әд@@
әд-Дин
әде@@
әдеби
әдеби@@
Әдеби
әдебие@@
әдебиет
әдебиет@@
Әдебиет
ӘДЕБИЕТІ
әдебиеттанушы@@
әдей@@
әдем@@
әдет@@
Әдет@@
әдет-ғұрып@@
әдеттегі@@
әдеттегіде@@
әді@@
әділ
Әділ
ӘДІЛ
әділе@@
әділет
әділет@@
Әділет
ӘДІЛЕТ
әдіс
әдіс@@
әдісна@@
әдісте@@
әдістеме@@
Әжібаев
әзербайжа@@
әзербайжан
Әзербайжан
Әзербайжан@@
ӘЗЕРБАЙЖАН
әзі@@
Әзі@@
Әзірбайжа@@
Әзірбайжан
Әзірбайжан@@
Әзірет
әзірл@@
әзірле@@
әзірлеме@@
әзірлен@@
әзірлеу@@
әзірлеуші@@
әйгіл@@
Әйгіл@@
әйе@@
әйел
әйел@@
Әйел
Әйел@@
ӘЙЕЛДЕР
Әйте@@
әйтеуі@@
Әйтпе@@
әк
әк@@
Әк@@
әке@@
әкел@@
әкелін@@
әкелме@@
әкет@@
әкім@@
ӘКІМ
әкімдіг@@
әкімдік@@
ӘКІМІ
ӘКІМІНІҢ
Әкімші@@
әкімшіліг@@
ӘКІМШІЛІГІ
әкімшілік
әкімшілік@@
Әкімшілік
ӘКІМШІЛІК
әкімшілік-аумақ@@
әл@@
Әл@@
әл-Ансари
әл-Ас
әл-ауқ@@
әл-ауқа@@
әл-ауқат
әл-ауқат@@
әл-Бағдади
Әлбет@@
әлг@@
әлдебі@@
әлдекім
әлдеқай@@
әлдеқашан
әле@@
Әле@@
әлем
әлем@@
Әлем@@
ӘЛЕМ
ӘЛЕМДІК
ӘЛЕМІ
әлеу@@
әлеуе@@
әлеует
әлеует@@
әлеуме@@
Әлеуме@@
әлеуметтан@@
әлеуметтанушы@@
ӘЛЕУМЕТТІК
әлеуметтік-саяси
әлеуметтік-экономикалық
әлжуаз
Әли
ӘЛИ
Әлиев
Әлихан
Әлия
ӘЛИЯ
әлі
Әлі@@
ӘЛІБАЙ
ӘЛІБЕК
ӘЛІМЖАН
әлімже@@
әліп@@
әліпби
әліпби@@
Әліпби@@
ӘЛІПБИІ
әліпп@@
ӘЛІППЕСІ
Әліш@@
ӘЛІШЕР
әлсіз@@
әлсізде@@
әлсіздіг@@
әлсіре@@
әлсірет@@
әл-Фараби
ӘЛ-ФАРАБИ
Әл-Хаки@@
Әмбеба@@
әмбебап
Әмі@@
Әмірліг@@
Әмірлік@@
әмірші@@
ән
ән@@
Ән
Әндіжан
ӘНДІЖАН
әні
ӘНУАР
ӘНУАРБЕК
әнұра@@
әнұран@@
әнш@@
әнші@@
ӘНШІ
ӘНШІСІ
әңг@@
әңгіме@@
әңгімеле@@
әпер@@
әр
әр@@
Әр
Әр@@
әрбі@@
Әрбі@@
әрбір
әрдай@@
әре@@
әрек@@
әреке@@
әрекет
әрекет@@
әрекеттес@@
әрекеттестік@@
Әрин@@
әрине
әріп@@
әріпте@@
Әріпте@@
әріптес
әріптес@@
Әріптес@@
әріптестіг@@
әріптестік@@
ӘРІПТЕСТІК
әрк@@
әркелк@@
әркелкілік
әркелкілік@@
әркім
әрқайсы@@
әрқашан
әрқил@@
әрп@@
әртараптандыр@@
әртіс@@
ӘРТІСІ
әртүрл@@
әртүрлілік
әртүрлілік@@
әс@@
әсе@@
Әсе@@
ӘСЕЛ
ӘСЕМ
әсер@@
әсерл@@
әсерлес@@
Әсет
ӘСЕТ
әсіре@@
Әсіре@@
әсіреоңшыл
әск@@
әскер@@
әскери
әскери@@
Әскери
әскери-саяси
Әскери-те@@
әскери-техникалық
әспетте@@
әт-Тирмизи
әу
әу@@
Әу@@
әуе@@
Әуе@@
әуежай
әуежай@@
Әуежай@@
Әуезов
Әуезов@@
ӘУЕЗОВ
әуекомпания@@
әуел@@
әуен@@
әуесқо@@
Әуесқо@@
әуесқой@@
әул@@
әуле@@
әулет@@
Әули@@
Әулиекөл
Әһл
әше@@
әшкереле@@
ӘЭСИ
Б
ба
ба@@
Ба@@
БАӘ
баб@@
Баб@@
баба@@
Баба@@
Бабыл
Бав@@
Бавария
Бавария@@
Бага@@
бағ@@
Бағ@@
баға@@
Баға@@
бағал@@
бағала@@
бағалан@@
бағаланба@@
бағам@@
Баған@@
бағдар@@
бағдарла@@
Бағдарла@@
бағдарлама@@
Бағдарлама@@
бағдарламала@@
Бағдарламала@@
БАҒДАРЛАМАЛАР
бағдарламалық
Бағдарламалық
БАҒДАРЛАМАСЫНЫҢ
бағдарламашы@@
бағдарлан@@
бағы@@
бағын@@
бағынба@@
бағындыр@@
бағыт
бағыт@@
бағытт@@
бағытта@@
бағыттал@@
бағыттыл@@
Бад-Виндсхай@@
Баден-Вюртемберг
Бад-Киссин@@
Бад-Кройцнах
баж
баж@@
бажайла@@
баз@@
база@@
базалық
Базалық
Базель
бай
бай@@
Бай@@
Байкал
байқа@@
Байқа@@
байқағанымызда@@
байқал@@
байқалма@@
байқама@@
байқау@@
БАЙҚАУ
БАЙҚАУҒА
БАЙҚАУДЫҢ
БАЙҚАУЫНЫҢ
Байқоңы@@
байла@@
байлан@@
байланы@@
байланыс
байланыс@@
Байланыс
БАЙЛАНЫС
БАЙЛАНЫСТАР
байланыстыр@@
байлығ@@
байлық
байлық@@
байрағ@@
БАЙРАМОВ
Байройт
Байрон
байтақ
байыт@@
байытыл@@
Бак
Бак@@
бакалавриат
Бактерия@@
Баку@@
БАКУ
Баку-Тбилиси-Карс
бақ
бақ@@
Бақ
Бақ@@
БАҚ
БАҚ-@@
бақа@@
бақтақ
бақталас@@
Бақтия@@
бақуа@@
Бақуа@@
бақш@@
Бақш@@
бақы@@
бақыла@@
бақылау@@
БАҚЫЛАУ
бақылауш@@
бақылаушы@@
бақыт
бақыт@@
Бақыт
Бақыт@@
БАҚЫТ
Бақытжан
БАҚЫТЖАН
бал
бал@@
Бал@@
бала@@
Бала@@
балабақш@@
балабақша@@
балал@@
БАЛАЛАР
балалық
балама@@
баламал@@
Баламал@@
БАЛАМАЛЫ
балан@@
баланс@@
Балауыз
БАЛҒОЖИН
балғын@@
балдыр@@
Балдыр@@
бале@@
Бале@@
балет
Балет
БАЛЕТ
БАЛЕТМЕЙСТЕРІ
Балқаш
балқыт@@
балл
баллистикалық
БАЛТЫҚ-ҚАЗАҚСТАН
балуан@@
балшықш@@
балығ@@
балық
балық@@
Балық
Балық@@
БАЛЫҚ
Баль@@
Бальбо@@
Бамберг
бан@@
Бан@@
Бангладеш
Бангладеш@@
Банго@@
БАНДАР
банк
банк@@
Банк
Банк@@
БАНК
банкинг
банкир@@
БАНКІ
БАНКІНІҢ
банкнот@@
банкнота@@
банкрот@@
Банкрофт
Банкс
БАНКТІҢ
Баня
Бао
бап@@
бар
бар@@
Бар@@
Барабан
Барак
Барб@@
Барбадос
Барбар@@
Барвиль
Баренц
бар-жоғ@@
Бар-жоғ@@
Бари
Бари@@
Барк@@
барла@@
Барла@@
барлаушы@@
барлы@@
барлығ@@
Барлығ@@
барлық
барлық@@
Барлық
барма@@
Барон
Барр@@
баррел@@
баррель
баррель@@
Барри
Баррингтон
Барсакелмес
Барселон@@
Бартон
бару@@
Барш@@
барша
барша@@
Барша@@
баршылық
бары@@
барынш@@
барыс-келіс
бас
бас@@
Бас
Бас@@
БАС
Баск@@
баскетбол
Баскетбол
баскетболшы@@
басқа@@
Басқа@@
басқар@@
Басқар@@
басқарма@@
БАСҚАРМА
БАСҚАРМАСЫ
БАСҚАРМАСЫНЫҢ
басқару@@
БАСҚАРУ
басқаруш@@
басқарушы@@
БАСҚАРУШЫ
БАСҚАРУШЫСЫ
басқарыл@@
басқаш@@
Басқаш@@
басқос@@
Басқос@@
басп@@
Басп@@
баспа@@
баспаг@@
баспагер@@
баспан@@
баспана@@
баспасөз
баспасөз@@
Баспасөз
Баспасөз@@
БАСПАСӨЗ
БАСПАСЫНЫҢ
бассей@@
бассейн@@
баст@@
баста@@
Баста@@
бастал@@
бастама@@
Бастама@@
бастапқ@@
бастапқы@@
Бастапқы@@
бастау@@
бастауыш
Бастауыш
басты@@
Басты@@
бастығ@@
БАСТЫҒЫ
басу@@
басш@@
басшы@@
Басшы@@
басшылығ@@
басшылық
басшылық@@
БАСШЫСЫ
БАСШЫСЫНЫҢ
басыл@@
Басыл@@
басылым@@
басым@@
басымдығ@@
басымдық@@
басымдылығ@@
басымдылық
бат@@
Бат
Бат@@
Баталов
батарея@@
Батист
Батлэ@@
Батт
Баттерфля@@
баты@@
Баты@@
батыл
батыр@@
Батыр@@
БАТЫР
БАТЫРХАН
батыс
батыс@@
Батыс
Батыс@@
Бау@@
баул@@
Баутцен
бауы@@
Бауы@@
бауыр@@
Бауыр@@
Бауыржан
БАУЫРЖАН
бауырлас
Бауырлас
Баффин
Бах
Бахрейн
БАХТИЯР
Баш@@
Башибаев@@
Башқұрт
Башқұртс@@
бая@@
Бая@@
баяғы@@
баян@@
Баян
Баянауыл
БАЯНАУЫЛ
баянда@@
баяндама@@
баяул@@
баяула@@
баяулат@@
бә@@
Бә@@
Бәй@@
бәйге@@
Бәйсейітов@@
Бәйтерек
Бәк@@
бәл@@
Бәл@@
бәленде@@
бәліш@@
бәр@@
бәрі
бәрібі@@
бәсе@@
Бәсе@@
бәсеке@@
бәсекеле@@
бәсекелес
бәсекелес@@
бәсекелестіг@@
бәсекелестік@@
бәсеңде@@
бәсеңдет@@
БҒМ
бе
бе@@
Бе@@
беде@@
Беде@@
бедел@@
Бедербелгілік
без
без@@
безендір@@
Безэл
бей@@
Бей@@
Бейбарыс
бейбіт
Бейбіт
БЕЙБІТ
бейбітшілік
бейбітшілік@@
Бейбітшілік
БЕЙБІТШІЛІК
Бейж@@
Бейжің@@
БЕЙЖІҢ
бейіл
бейімде@@
бейімдел@@
бейн@@
бейне@@
Бейне@@
бейнекүнделік@@
бейнеле@@
Бейнеле@@
бейнелен@@
Бейнеоператор@@
Бейнеу-Бозой-Шымкент
Бейорганикалық
бейресми
БЕЙСЕНБАЕВ
бейтара@@
бейхаб@@
бек
бек@@
Бек
Бек@@
беке@@
бекемде@@
бекет
бекет@@
Бекет
Бекжанов
беки
бекі@@
бекініс
бекір@@
бекіт@@
бекітіл@@
Бекмамбетов
бел
бел@@
Бел@@
беларусь
Беларусь
Беларусь@@
БЕЛАРУСЬ
белбе@@
Белбе@@
белг@@
Белг@@
белгі@@
белгіл@@
Белгіл@@
белгіле@@
белгілен@@
белгілеу@@
белгісіз@@
белгісіздік@@
белде@@
Белде@@
белдеу@@
белдеу-бі@@
беле@@
Белен
белес@@
Белиц@@
Белл
Белл@@
Беллини
Беллинсгаузен
Белль
Белоруссия@@
белсе@@
Белсе@@
белсен@@
белсенді@@
белсенділіг@@
белсенділік
белсенділік@@
Бельгия
Бельгия@@
БЕЛЬГИЯ
Бельфон
Бельфон@@
бен
Бен
Бен@@
БЕН
Бенгал
Бенджамин
Бендорф
Бенедикт
бенефици@@
бензин
бензин@@
Бенилюкс
Бенин
Бенито
Бентон
Бену@@
Бенфик@@
бер@@
Бер@@
берг@@
Берг
Берг@@
Бергамо
Бергхай@@
Бере@@
Берел
Беренбах
беретінде@@
Беринг
бері
берік
Берік
БЕРІК
беріктіг@@
беріл@@
берілме@@
Беркли
Берли@@
Берлин
Берлин@@
БЕРЛИН
берм@@
берме@@
Берн
Берн@@
Берна@@
Бернан@@
Бернард
Берни
Бернс
Бернулли
беру@@
БЕРУ
беруш@@
беруші@@
Берхтесга@@
бес
бес@@
Бес
бесе@@
бесжылдық@@
бесінш@@
Бесінш@@
Бесінші@@
Бесс
бестіг@@
бет
бет@@
Бет
Бет@@
бетбұр@@
бетбұрыс@@
бетон
бетон@@
Бетон
Бетховен
Бетховен@@
би
би@@
Би
Би@@
БИ
Биберах
Биберн
Библия@@
Бивэ@@
Биг
Бид@@
бида@@
бидай@@
Биз@@
бизне@@
Бизне@@
бизнес
бизнес@@
Бизнес
БИЗНЕС
бизнесмен@@
бизнес-модель@@
БИЗНЕСТІ
бизнес-фору@@
биіг@@
биік
биік@@
биіктіг@@
Биіктіг@@
биіктік@@
бил@@
биле@@
билеп-төсте@@
билет
билет@@
билеуші@@
биліг@@
билік
билік@@
Билік
Билік@@
Билл
Билли
Биль
бин
Бин
Бин@@
БИН
бинт
Био@@
биогаз
биолог@@
биология
биология@@
Биология
биологиялық
Биологиялық
биосфералық
Бир@@
бирж@@
Бирж@@
биржа@@
Биркенфельд
Бирминге@@
Бискайя
Бисмарк
биткои@@
биткоин
биткоин@@
Биткоин
Битти
Бич
Бичвуд
биші@@
биыл
биыл@@
Биыл
биылғ@@
Биылғ@@
бі@@
Бі@@
біз
біз@@
Біз
Біз@@
бізбен
бізге
бізден
біздік@@
біздің
біл
біл@@
Біл@@
білгі@@
білдір@@
білдірме@@
білдіруші@@
білезік@@
білетінде@@
білік@@
біліктіліг@@
біліктілік
біліктілік@@
білім
білім@@
БІЛІМ
білімдар@@
білімді@@
БІЛІМІ
білме@@
білу@@
білуімш@@
бін
бір
бір@@
біраз
біраз@@
бірақ
Бірақ
бірауыз@@
бір-бі@@
бір-бір@@
бірге
бірде@@
бірде-бі@@
бірден-бі@@
біре@@
Біре@@
бірегейліг@@
бірегейлік
бірегейлік@@
бір-ек@@
біреу
біреу@@
Біреу@@
біржақ@@
Біржан
БІРІ
біріг@@
бірігу@@
біріз@@
бірік@@
Бірік@@
біріктір@@
Біріктір@@
біріктіру@@
бірін-бі@@
бірінш@@
Бірінш@@
бірінші@@
Бірінші@@
БІРІНШІ
біріншіліг@@
біріншілік@@
біркелк@@
бірқа@@
Бірқа@@
бірқал@@
бірле@@
Бірле@@
бірлес@@
Бірлес@@
бірлестіг@@
БІРЛЕСТІГІНІҢ
бірлестік@@
бірліг@@
бірлік
бірлік@@
Бірлік
Бірнеш@@
бірнеше
бірте-бір@@
біртінде@@
біртұтас
Біртұтас
бірша@@
бірың@@
біт@@
біте@@
бітім@@
бітімг@@
бітімгер@@
бітімгерлік
бітімгершілік
Бітімгершілік
бітір@@
бітіруш@@
бітпе@@
Бішкек
Бішкек@@
БІШКЕК
БҚО
Бл@@
Блаффс
Бле@@
Блейк
блог@@
блогер@@
блок
блок@@
Блок
блокчейн
Блокчейн
БЛОКЧЕЙН
Блумингтон
Блумфилд
Блэйн
Блэйрстаун
Блэк
Блэкберн
Блю
бо@@
Бо
Бо@@
Боао
Боатенг
Боб
Бобиньи
Бову@@
БОГДАН
Боз
Боз@@
бозтор@@
бозторғай@@
Бозшакөл
Бозымбаев
БОЗЫМБАЕВ
бой
бой@@
Бой@@
бойғ@@
Бойд
Бойс
бойы
бойынш@@
БОЙЫНША
бок@@
Бок@@
бокс
бокс@@
Бокс
Бокс@@
Боксберг
боксшы@@
бол@@
боларлық
болат
Болат
БОЛАТ
БОЛАТБЕК
болатында@@
болатындығ@@
болатындық@@
болашағ@@
болашақ
болашақ@@
Болашақ
Болашақ@@
БОЛАШАҚ
Болг@@
Болгария
Болгария@@
болғанда@@
болғандығ@@
Болдуин
болдырма@@
болж@@
болжа@@
Болжа@@
болжағанда@@
болжал@@
болжам@@
болжамынш@@
болжан@@
болжау@@
Болив@@
Боливия
болм@@
болма@@
болмас
болмау@@
болмы@@
болмыс
Болмыс
Болтон
болу@@
Боль@@
Больцано
большевик@@
бомб@@
Бомб@@
бомба@@
Бомени@@
Бомон
Бон
Бон@@
Бон-Жезус
Бонит@@
Бонн@@
Бонэй@@
Бор@@
Бордо
Борис
БОРИС
Борисович
Борн
Борнео
борыш
борыш@@
борышкер@@
бос
Бос
Бос@@
боса@@
босаңсыт@@
босат@@
босқ@@
Босқ@@
босқын@@
Босқын@@
Босния
боста@@
Боста@@
бостандығ@@
бостандық@@
Бостон
Босфо@@
бот@@
Бот
ботаник@@
Ботаник@@
Ботаникалық
Ботево
Ботсван@@
Боулинг
боя@@
Бояул@@
бө@@
Бө@@
бөге@@
бөгет
Бөкейхан
БӨКЕЙХАНОВ
бөл@@
Бөл@@
бөле@@
бөлек
бөлен@@
бөліг@@
бөлік@@
бөлім@@
БӨЛІМ
БӨЛІМІ
БӨЛІМІНІҢ
бөлімше@@
бөлін@@
бөліні@@
бөліну@@
бөліс@@
бөлісу@@
бөлме@@
бөлу@@
бөлшек
бөлшек@@
Бөлшек
бөлшекте@@
бөлшектен@@
бөлшектену@@
Бөрібаев
Бр@@
Бра@@
Браг@@
Бразилия
Бразилия@@
Брайан
Брайтенбах
Брайтенбрунн
Брайтон
Бранденбург
Брандт
Брансвик
Бранч
Братислав@@
Браун
БРАУН
Браунвилл
Бре@@
Брекзи@@
Брекзит
Брекзит@@
брекзитші@@
Брекси@@
Брексит
Брексит@@
Брен@@
Бренвиль
бренд
бренд@@
брендт@@
Бренна@@
Брентвуд
Брест
Бреттон-Вудс
бри@@
Бри
Бри@@
Брига@@
Бридж
Бриджпорт
Бриджуатэ
Брион
Бристол
брита@@
Брита@@
британдық@@
Британдық@@
Британия
Британия@@
британиялық
Британиялық
Британ-Қазақ
брифинг@@
бро@@
Бро@@
Бродерик
брокер@@
брокерлік
броми@@
Бронсон
Брук
Брукингс
Бруклин
Брукс
Бруксвилл
Брукфилд
Бруно
Брусиловски@@
Брэдфорд
Брэкенридж
Брэндон
Брэнсон
Брэнч
Брюк@@
Брюс
Брюссель
Брюссель@@
БРЮССЕЛЬ
Брянск
бу
бу@@
Бу
Бу@@
Буа-д
Буас@@
Будапешт
БУДАПЕШТ
Буддиз@@
Бук
Буко
Букс
Буль
Бундестаг
БУНДЕСТАГ
Бунедко@@
Бур@@
Бураба@@
Бурабай@@
Бург
Бургдорф
Буркина-Фасо
Бурлингтон
Бурно@@
Бурт
Бурунди
Бурятия
Буффало
Бух
Бух@@
бухгалтерлік
Бухгалтерлік
Бухгольц
Буш
Буш@@
Буш-дю-Рон
буы@@
буын@@
Буэнос-Айрес
бүг@@
Бүг@@
бүгін
бүгін@@
Бүгін@@
бүгінг@@
Бүгінг@@
Бүйі@@
бүкіл
Бүкіл
бүкіләлем@@
Бүкіләлем@@
БҮКІЛӘЛЕМДІК
Бүкілқытайлық
бүлдір@@
бүліг@@
бүрге@@
бүркіт
Бүркіт
бүркітш@@
бүркітші@@
Бүт@@
бұ@@
Бұ@@
бұғаз@@
бұғатта@@
бұз@@
Бұзаубас
бұзу@@
бұзыл@@
бұй@@
Бұйр@@
бұйрық
бұйрық@@
бұйым@@
бұйыр@@
Бұқ@@
бұқар@@
Бұқар@@
бұқара@@
бұқаралық
Бұқаралық
бұл
бұл@@
Бұл
бұла@@
Бұла@@
бұлайш@@
бұлақ
бұлбұл
Бұлғ@@
бұлдырық
бұлқыныс
бұлт@@
бұлыңғы@@
Бұнда@@
бұндай
бұр@@
Бұр@@
бұрғыла@@
Бұрғыла@@
бұрмала@@
бұрмалан@@
бұршақ
Бұршақ
бұрыл@@
бұрын
бұрын@@
Бұрын@@
бұрынғ@@
Бұрынғ@@
бұрынғы@@
БҰРЫНҒЫ
бұрынғыда@@
бұрын-со@@
бұрыш@@
Бұрыш
Бұрыш@@
БҰҰ
БҰҰ-@@
Бұхар@@
быз
былай
былты@@
Былты@@
былтырғ@@
Былтырғ@@
бын
Бэ@@
Бэдфорд
Бэйтс
Бэкон
Бэл
Бэлл
Бэллевю
Бэнд
Бэнкс
Бэннон
Бэннон@@
Бэнтон
Бэркеле@@
Бю@@
бюдж@@
бюдже@@
бюджет
бюджет@@
Бюджет
Бюль
Бюр@@
Бюрен
Бюрлингтон
бюро
бюро@@
БЮРОСЫНЫҢ
Бюсь@@
В
Ва@@
Вагн@@
вагон
вагон@@
Вади@@
Вай@@
Вайн
Вайнгар@@
Вайоминг
Вайсенборн
вакуу@@
Вал@@
Вален@@
Валенсия
Валентин
Валентин@@
Валентинович
ВАЛЕРА
Валери
Валери@@
Валериан
ВАЛЕРИЙ
Валерьевич
Вали
Валкэ@@
Валле-д
Валлэ@@
Валнут
ВАЛОВАЯ
Валь@@
Вальбах
Вальв@@
Валь-д
Вальд
Валь-де-Марн
Вальс
Вальхаузен
валю@@
Валю@@
валюта@@
валюталық
ван
Ван
Ван@@
ВАН
Вандали@@
Вандея
Ванкув@@
Ванн@@
Вануат@@
Варе@@
Варзе@@
Варрэн
Варшав@@
ВАСИЛЕНКО
Васили@@
ВАСИЛИЙ
Васильев
Васильевич
Васильевн@@
Васко
ВАТИКАН
Ватсон
Вацлав
Вашингто@@
вашингтон
Вашингтон
Вашингтон@@
ВАШИНГТОН
ВВС
Ве@@
Веб
Веб@@
Ведомости
ведомство
ведомство@@
Ведомство
Вейм@@
векто@@
Векторлық
Веллингтон
Велосипед
Вель@@
Вен@@
Веналық
венг@@
Венг@@
венгер@@
Венгрия
Венгрия@@
ВЕНГРИЯ
ВЕНГРИЯНЫҢ
Венесуэл@@
Венесуэла@@
Венеция
Венсан
Вентспилс
венчурлық
Вер@@
Вера-Крус
Верди
Верн@@
Вернон
Верон@@
Версаль
Вёрт
Вес@@
Вест
Вестендорф
Вести
ВЕСТМИНСТЕР
Вестэдж@@
Ветеринария
Ви@@
Виан@@
Вивальди
Видаль
видео
видео@@
ВИДЯКИН
Виенн@@
виз@@
Виз@@
виза@@
Виза@@
визалық
Визен
Вик
Викентьевич
Вики
Викто@@
ВИКТОР
Виктория
Викторович
Викторовн@@
Вил@@
Вилар-ду-Монти
Вилдвуд
Вилен
Вилл@@
Вилла-д
Вилладж
Вилланова-д
Виллард
Вилле@@
Виллетт
Вилли
Вилло@@
Виллэйдж
Вилтон
Виль
Виль@@
Вильгель@@
Вильдберг
Вилье-ле-Сек
Вильсон
Вилья@@
Вин@@
Виндзо@@
Виндсо@@
Виндха@@
Вини@@
Винкель
Виноградов
Винон@@
Винс
Винсро@@
Винтербах
Винченцо
Винчи
Виньоль
Вир@@
Виргиния
виртуа@@
Виртуа@@
виру@@
Виру@@
вирус
Вирус@@
Вис
Вис@@
Висен@@
Висконсин
Висоз@@
Витали@@
ВИТАЛИЙ
Витальевич
Витория
Витр@@
Витт
Виттенберг
вице-минист@@
ВИЦЕ-МИНИСТРІ
вице-президен@@
вице-президент@@
ВИЦЕ-ПРЕЗИДЕНТІ
Владивосток
Владими@@
ВЛАДИМИР
Владимирович
Владимировн@@
Владислав
Во
Вогез
Возняк
вокзал@@
Воклюз
Воку@@
волатильділік@@
Волг@@
волейбол@@
Волков
Воль@@
Вольф
Вольфганг
Вольфра@@
Вон
Воронеж
Ворсингтон
Вроцлав
Всеволод
Всеволодович
Ву
ВУГАР
Вуд
Вудбридж
Вудбюри
Вудвилл
Вудс
Вудсток
Вулф
Вырбиц@@
Вышеград
Вьенн@@
Вьетна@@
Вьетнам@@
ВЬЕТНАМ
Вью
Вэ@@
Вэбб
Вэйл
Вэлдон
Вэлле@@
Вэнь
Вэст
Вэстбрук
Вэствуд
Вэстон
Вэстфали@@
Вэстфилд
Вю
Вюрцбург
Вячеслав
ВЯЧЕСЛАВ
Вячеславович
Г
га
Га@@
Габон
Габриель
Габриэль
Габрово
Гав@@
Гавриил
Гаврилович
Гагарин
гаджет@@
Гаджет@@
газ
газ@@
Газ
Газ@@
ГАЗ
газдандыр@@
Газдандыр@@
газдандырыл@@
газе@@
газет
газет@@
ГАЗЕТІНІҢ
Газпро@@
Гаити
Гаити@@
Гай@@
Гайан@@
Гайнэ
ГАЙНЭ
гала-концерт
гала-концерт@@
Галактик@@
галактика@@
Галактикалық
галерея@@
Галиле@@
Галин@@
ГАЛИНА
Галисия
Галогенид@@
Галь
гамби@@
гамбит
Гамбия
Гамбург
Гамбург@@
Гамильто@@
Гамильтон
Гамлет
Ган@@
Ганн
Ганнов@@
Ганс
Гарвард
Гарвин
Гардэн
Гари
Гармоникалық
Гарольд
Гаронн@@
Гарри
Гаррисон
Гарфилд
Гастон
гастрол@@
гастроль@@
гастрономиялық
ГАУР
Гаусс
ГАУХАР
Гвадалахар@@
Гваделуп@@
Гватемал@@
Гватемала@@
Гвиана@@
Гвинея
Гвинея-Биса@@
ге
ге@@
Ге@@
Гё@@
гегемония@@
гей
Гей@@
Гейдельберг
Гейтс
гек@@
гелі
Гельмут
Гем@@
ген
ген@@
Ген@@
гендерлік
Гендерлік
генерал
генерал@@
ГЕНЕРАЛЬНЫЙ
генерато@@
генератор@@
генетик@@
Генетикалық
Геннади@@
Геннадьевич
гено@@
Генри
Генрих
Генрихович
Генуя
Гео@@
географ@@
география
география@@
География
географиялық
Географиялық
геолог@@
геология
геология@@
Геология
геологиялық
Геологиялық
геометрия
Геометриялық
Георг
Георги@@
Георгиевич
ГЕОРГИЙ
геосаяси
геофизикалық
гепатит
Гёппин@@
Гер@@
Герасимов
Герберт
Гёрлиц
Герман
Германия
Германия@@
ГЕРМАНИЯ
ГЕРМАНИЯДАҒЫ
Герон
Герхард
Герц
Герцеговин@@
герцог@@
Гессен
Гёттин@@
Гештальт
Ги
Ги@@
Гиббс
Гибрал@@
Гибсон
гид
ГИД
Гидравликалық
Гилман
Гилфорд
Гиль@@
Гильермо
Гимала@@
гимнастик@@
гипотеза@@
гипс
Гипуско@@
Гирт
Гит@@
Гифхорн
гі
гі@@
гіз
гіз@@
гім
гісі
Гленвью
глобус
Глория
Глэн
Глэнвуд
Го
Го@@
Говард
Гожак
гол
Голландия
Голливуд
Голль
Головкин
Гомес
Гон@@
Гондурас
Гонконг
Гонконг@@
ГОНКОНГ
Горбачев
Гордон
гормон@@
Горьки@@
ГОРЬКИЙ
Готтлиб
Готфрид
Гоулд
Гоулдэн
Гофман
Гошэн
гөрі
Гра@@
Гравитациялық
градус@@
гран@@
Гран@@
Грана@@
Гранд
Гранит
грант
грант@@
Грант
Грасс
граф@@
Граф
Граф@@
график@@
График@@
графика@@
ГРАФИКАСЫ
Графтон
Гре@@
Грегори
Грез
Грей@@
Грейс
грек
Грек
Грекия
Грекия@@
Грена@@
Гренландия
Грес@@
Греция
Греция@@
Гри@@
Григори@@
Григорьевич
ГРИГУЛЕ
Грилло
Грим@@
Гримм@@
Грин
Гринвилл
Гринвуд
Гринфилд
Грит
Грозны@@
Гросс
Гротон
Гроув
Грув
грузин
Грузин
Грузия
Грузия@@
ГРУЗИЯ
ГРУЗИЯДАҒЫ
грузиялық
ГРУЗИЯНЫҢ
Грэ@@
Грэмми
Грэнби
Грэнд
Гу@@
Гуанчжо@@
губернато@@
ГУБЕРНАТОРЫ
Гув@@
Гуд
Гук
гуманитарлық
Гуманитарлық
Гумилев
ГУМИЛЕВ
Гунн@@
Гуннарсдотти@@
Гупий@@
Густав
Густавович
Гутенберг
гүл
гүл@@
Гүл@@
гүлден@@
ГҮЛМИРА
ГҮЛНАР
Гүлшар@@
ГҮЛШАРА
Гэри
ГЭС
Гэтсби
Гюн
Гюн@@
Гюнцбург
Гюстав
Гютерсло
-ғ@@
Ғ
ға
ға@@
Ғаби@@
Ғабит
ҒАБИТ
ғажа@@
ғажай@@
ғажайып@@
Ғазиз@@
ҒАЗИЗАТ
Ғазнауи
ғай
ғай@@
ғал@@
Ғал@@
ғала@@
ғалам@@
Ғалам@@
ғаламто@@
Ғаламто@@
ғаламтор@@
ғаламш@@
Ғаламш@@
ғалы
ғалым@@
Ғалым@@
ҒАЛЫМ
ҒАЛЫМЖАН
ған
ған@@
ғана
Ғани
ҒАНИ
ҒАРИФОЛЛА
ғарыш
ғарыш@@
Ғарыш
Ғарыш@@
ғарышкер@@
ҒАРЫШКЕР
ҒАРЫШТЫҚ
ғас@@
ғасы@@
ғасыр@@
Ғасыр@@
ғасырлық
ҒЗО
ҒЗТҚТ
ғимара@@
ғимарат
ғимарат@@
ғо@@
ғұмы@@
ғұмыр@@
ғұмырл@@
ғұн@@
Ғұн@@
ғы
ғы@@
ғыз
ғыз@@
ғыл@@
Ғыл@@
ғылым@@
ҒЫЛЫМ
ғылым-біл@@
ҒЫЛЫМДАР
ҒЫЛЫМДАРЫНЫҢ
ғылыми
Ғылыми
ҒЫЛЫМИ
ғылыми-зертте@@
Ғылыми-зертте@@
ҒЫЛЫМИ-ЗЕРТТЕУ
ғылыми-тәжірибелік
ғылыми-техникалық
ғым
ғысы
-д@@
д
Д
да
да@@
Да@@
дабыл
Давид
Давидович
Даво@@
Давос
Давос@@
Давыдов
дағдар@@
дағдары@@
дағдарыс
дағдарыс@@
Дағдарыс
Дағдарыс@@
дағды@@
Дағыс@@
дай@@
дайын@@
дайында@@
дайындал@@
дайындау@@
дайындығ@@
дайындық@@
Дако@@
дақ@@
дақыл@@
Дал@@
дала
дала@@
Дала@@
Далалық
Дале@@
Даллас
Далтон
дам@@
Дам@@
дами
дами@@
дамит@@
даму@@
ДАМУ
дамуш@@
Дамуш@@
дамы@@
Дамы@@
дамыт@@
дамыту@@
ДАМЫТУ
-дан
дан
Дан
Дан@@
дана
дана@@
ДАНА
даналығ@@
Данбюри
Данди
Данилович
Даниэль
ДАНИЭЛЬ
Дания
Дания@@
ДАНИЯР
Данкан
дар
дар@@
Дар@@
дарашыл
Дарвин
Дари@@
Даррен
Дархан
ДАРХАН
дарын@@
ДАРЬЯ
даста@@
дата@@
дау@@
дау-дама@@
дау-дамай@@
даул@@
даулас@@
Даун
дауы@@
дауыл
дауыл@@
Дауыл
дауыс
дауыс@@
Дауыс
Дауыс@@
Дафн@@
Даха@@
даярла@@
даярлық
дә@@
Дә@@
дәйек@@
дәл
Дәл
дәлдік@@
дәле@@
дәлел
дәлел@@
дәлелде@@
дәлелдегенінде@@
дәлелдеме@@
дәлелден@@
ДӘЛЕНОВ
дәліз
дәліз@@
дәм@@
дән@@
дәр@@
дәреже@@
дәрежел@@
дәрі@@
дәріг@@
Дәріг@@
дәрігер@@
Дәрігер@@
ДӘРІГЕРІ
дәрі-дәр@@
дәрі-дәрмек@@
дәрілік
Дәрілік
дәріпте@@
дәріс
дәріс@@
дәстү@@
дәстүр@@
дәстүрл@@
Дәстүрл@@
ДӘСТҮРЛІ
дәуі@@
Дәуі@@
дәуір@@
Дәуіт
Дәулет
ДӘУЛЕТ
Дәурен
ДӘУРЕН
-де@@
де
де@@
Де
Де@@
ДЕ
дебат@@
дебе@@
дебю@@
дебют@@
Дев@@
девальвация@@
Деггендорф
дегенде@@
дегенмен
Деглобализация@@
дезинформация
дезинформация@@
Дезинформация
Дейвид
дейін
дейінг@@
дейінгі@@
ДЕКАНЫ
декларация@@
Декларация@@
декларацияла@@
Декстэ@@
Дел@@
делдал
делдал@@
делегат
делегат@@
делегация
делегация@@
ДЕЛЕГАЦИЯСЫНЫҢ
Дели
делік
делін@@
дель
дельфи@@
дельфин
демал@@
демалыс
деме@@
демеуші@@
Деми
Демирел
демография@@
демографиялық
демократ@@
Демократ@@
демократия
демократия@@
Демократия
Демократия@@
демократиялық
Демократиялық
ден
ден@@
Ден@@
денде@@
дене
дене@@
ДЕНЕ
Дени
Денис
Деннис
денсаулығ@@
денсаулық
денсаулық@@
Денсаулық
ДЕНСАУЛЫҚ
дең@@
деңг@@
деңге@@
деңгей@@
Деңгей@@
деңгейл@@
департамен@@
департамент@@
ДЕПАРТАМЕНТ
ДЕПАРТАМЕНТІ
ДЕПАРТАМЕНТІНІҢ
депози@@
депозит@@
депрессия@@
депута@@
депутат@@
ДЕПУТАТЫ
дер
дер@@
дербес
Дербес
дере@@
дерек
дерек@@
Дерек@@
дереккөз@@
дерекқо@@
Дерекқо@@
держав@@
держава@@
дерлік
Дернбах
дерт@@
дес@@
Де-Сев@@
Десерт
деструктив@@
де-факто
дефици@@
дефицит
дефицит@@
дефляция
дефляция@@
дефляциялық
дефолт
дефолт@@
Деш@@
Дж@@
джаз
Джаз
Джакар@@
Джакомо
Джанет
Джанкшн
Джаред
Джастин
Джаф@@
ДЖАФАРОВ
Дже@@
Джей@@
Джейми
Джеймс
Джейн
Джейсон
Джек
Джеки
Джексон
Дженни
Дженниф@@
Джеро@@
Джерри
Джерси
Джесси
Джессик@@
Джефф
Джефферсон
Джеффри
Джи@@
Джибути
Джидаро
Джимми
Джин
Джо
Джо@@
Джоан
Джобс
Джованни
ДЖОВАННИ
Джозеф
Джойс
Джон
ДЖОН
Джона@@
Джонас
Джонни
Джонс
Джонсон
Джордж
ДЖОРДЖ
Джорджия
Джорджтаун
Джош
Джузепп@@
Джульет@@
Джун
ДЖУН
Джэксон
Джэфферсон
Дзюдо@@
ди
ди@@
Ди
Ди@@
диагностикалық
диаграм@@
диалог
диалог@@
Диалог
Диан@@
Диас
диаспор@@
диаспора@@
ДИАСПОРАСЫНЫҢ
Диафилд
Дивергент
дивиденд
дивиденд@@
дивизио@@
Диего
дизай@@
дизайн
дизайн@@
Дизайн
дизайнер@@
ДИЗАЙНЕР
дизель@@
Дизель
диір@@
Диксон
диктато@@
диктатор@@
Дил
Дилан
дилем@@
дилемма@@
Диллин@@
Диллон
Димитров
Дин
Дин@@
ДИНА
динамиз@@
динамик@@
динамика@@
динамикалық
Динамикалық
Динамо
ДИНАРА
династия@@
Дио@@
дипло@@
диплом@@
дипломат
дипломат@@
Дипломат@@
дипломатия
дипломатия@@
дипломатиялық
Дипломатиялық
Дипхольц
директо@@
директор@@
ДИРЕКТОР
ДИРЕКТОРЛАР
ДИРЕКТОРЫ
ДИРЕКТОРЫНЫҢ
дириж@@
дирижер@@
ДИРИЖЕР
ДИРИЖЕРІ
Дирихл@@
дисбалан@@
Дискре@@
дискриминациялық
дискур@@
дискурс
диспетч@@
диссиден@@
диссидент@@
Дифференциа@@
ді
ді@@
дік
дім
дін
дін@@
Дін
ДІН
дінаралық
діни
Діни
дің
дір@@
дітте@@
ДҚМ
ДҚМ-@@
Дмитри@@
Дмитриевич
ДМИТРИЙ
ДНҚ
до@@
До@@
доб@@
Довэ@@
догма@@
доғар@@
дода@@
Додд-Франк
Додж
доза@@
докто@@
докторантур@@
ДОКТОРАНТЫ
ДОКТОРЫ
доктрина@@
дол@@
Дол@@
доллар@@
долларлық
Долорес
Домбровски@@
домбыр@@
Домбыр@@
домбыра@@
ДОМБЫРА
Доменико
ДОМИНГО
Доминик
Доминик@@
Доминикан
Дон
Дон@@
Дональд
ДОНАЛЬД
Донецк
донор
донор@@
доңғалақ
Дор@@
Дордо@@
Дордонь
ДОРНФЕЛЬДТ
дос
дос@@
Доста@@
достастығ@@
достығ@@
достық@@
ДОСТЫҚ
дө@@
дөңгелек
дөңгелет@@
Дөңес
Др@@
дра@@
Дра@@
Драганово
Драги
драма@@
ДРАМА
драматург@@
драма-фильм@@
Дрез@@
Дро@@
дрон@@
Дрю
ДСҰ
ДСҰ-@@
Ду
Ду@@
дуал
Дуба@@
Дубай@@
Дублин
Дуглас
Дуинг
Дулати
Дума@@
Думан
Дутер@@
Дутерте@@
душ@@
Душанб@@
Душанбе@@
дү@@
Дү@@
дүкен@@
дүни@@
Дүни@@
дүние@@
дүниежүз@@
Дүниежүз@@
дүниежүзілік
Дүниежүзілік
ДҮНИЕЖҮЗІЛІК
дүниетан@@
дүрбеле@@
дүрбелең@@
Дүрен
дұры@@
дұрыс
Дұрыс
дұрыстығ@@
ды
дыб@@
Дыб@@
Дыбрав@@
дыбыс
дыбыс@@
Дыбыс
дық
дық@@
дым
дың
дыр@@
Дычко
дэ
Дэ
ДЭ
Дэвид
ДЭВИД
Дэвис
Дэдпул
Дэдха@@
Дэйтон
Дэлтон
Дэн
Дэниел
Дэнтон
Дэс
Дю@@
Дюрха@@
е
е@@
Е
ЕАЭО
ЕАЭО-@@
ЕАЭО-Қыта@@
ебеде@@
Ев@@
Евгени@@
ЕВГЕНИЙ
Евгеньевич
Евиль
Евклид
евре@@
Евре@@
еврей@@
Евровидение@@
Евроньюс
ег@@
Ег@@
Ег-Вив
еге@@
Еге@@
егеме@@
Егеме@@
егемендіг@@
егемендік@@
егер
егжей-тегжейл@@
Египе@@
Египет
ЕГИПЕТ
ЕГИПЕТТЕГІ
егіс
Его@@
Егорович
Егремон
ед@@
едәуі@@
еді
едік
Еділ
ЕЕА
ЕЕА-@@
ежел@@
ежелг@@
Ежелг@@
ейік
ейін
ек@@
Ек@@
Екатерин@@
Екатеринбург
еке@@
Еке@@
екен
екен@@
екендіг@@
екендік@@
екеу@@
Екеу@@
екі
екі@@
Екібастұз
екіжақ@@
Екіжақ@@
екілік
екінш@@
Екінш@@
екінші@@
Екінші@@
екітала@@
екп@@
Екс
ЕҚЫҰ
ел
ел@@
Ел
Ел@@
елба@@
Елба@@
Елбас@@
ЕЛБАСЫ
елдер@@
ЕЛДЕРІ
ЕЛДЕРІНІҢ
елді-ме@@
елеме@@
Елен@@
ЕЛЕНА
елесте@@
елестет@@
елеу@@
елеул@@
Елеусінов
Елизаве@@
елікте@@
еліміз@@
Еліміз@@
ЕЛІНІҢ
ело@@
Ело@@
елорда@@
Елорда@@
елордалық
елтаң@@
Елтаңб@@
елші@@
Елші@@
елшіліг@@
Елшіліг@@
ЕЛШІЛІГІНІҢ
елшілік@@
ЕЛШІСІ
ЕЛШІСІНІҢ
Ельцин
ем
ем@@
емде@@
Емен
емес
емес@@
еместе@@
еместіг@@
емл@@
емтихан@@
ен
ен@@
Ен
Ен@@
Ён
енгіз@@
енгізіл@@
енгізілме@@
енгізу@@
енді
ендіг@@
Ендіг@@
ендір@@
ендіріл@@
ендіру@@
Енисе@@
ЕНЧА
енші@@
еншілес
ең
ең@@
Ең
Ең@@
ЕҢ
еңбег@@
еңбек@@
Еңбек@@
ЕҢБЕК
еңбекқо@@
еңгіз@@
еңгізіл@@
еңсе@@
еңсер@@
ЕО
ЕО-@@
ЕОБ
ЕОБ-@@
Еп@@
ер
ер@@
Ер
Ер@@
ЕРАЛЫ
Ербевиль
ЕРБОЛ
Ерболат
ЕРБОЛАТ
ергежейл@@
Ергежейл@@
ЕРҒАЛИЕВ
Ердо@@
ере@@
ереж@@
ереже@@
Ереже@@
Ереймента@@
ерекш@@
Ерекш@@
ерекшеле@@
ерекшелен@@
ерекшеліг@@
ерекшелік
ерекшелік@@
ерен
Ерен
ересек@@
Ержан
ЕРЖАН
ерік
ерік@@
Ерік
Ерік@@
ерікті@@
ерк@@
Ерк@@
еркiн
ЕРКІН
еркіндіг@@
Ерлан
ЕРЛАН
ерліг@@
ерлік
ерлік@@
ЕРМЕК
ЕРНАР
ерте@@
Ерте@@
ертегі@@
ертерек
Ертіс
ес@@
Ес@@
ЕС-145
есе@@
Есе@@
есеб@@
есел@@
еселе@@
еселен@@
есеп
есеп@@
есепте@@
Есепте@@
есептеге@@
есептел@@
есептеме@@
есептеу@@
есеп-шот@@
Есет
ЕСЕТ
есіг@@
есік
есік@@
Есік
Есіл
есім@@
ЕСІМ
ЕСІМОВ
Есімханов@@
есіртк@@
Есіртк@@
есірткі
есірткі@@
еск@@
Еск@@
Ескекаяқ@@
Ескенді@@
ескер@@
ескерілме@@
ескерме@@
ескерт@@
ескерткіш
ескерткіш@@
ескерту@@
ескір@@
ест@@
естелік
естелік@@
есті@@
естілме@@
Естр@@
ет
ет@@
Ет
Ет@@
ЕТ
етег@@
етен@@
Етен
ететінде@@
ететіндік@@
етіл@@
етін
етін@@
еткенде@@
етпе@@
ету@@
етуш@@
Еуразия
Еуразия@@
ЕУРАЗИЯ
еуразиялық
Еуразиялық
ЕУРАЗИЯЛЫҚ
еуро
еуро@@
Еуро
еуроай@@
Еуроай@@
еуроаймақ@@
Еуроаймақ@@
Еуроодақ
Еуроодақ@@
ЕуроОдақ
Еуроөң@@
Еуроп@@
еуропа@@
Еуропа@@
ЕУРОПА
Еуропа-Батыс
еуропалық
еуропалық@@
Еуропалық
Еуропалық@@
ЕУРОПАЛЫҚ
Еуропарламент
еуропашыл
еуроскептик
еуроскептик@@
Еурото@@
ЕҰУ
Ефимович
ЕХРО
ЕХРО-@@
ЕХРО-2017
еш
Еш
Еш@@
Ешбі@@
ешбір
ешк@@
Ешк@@
ешкім
ешкім@@
ешқайсы@@
Ешқанда@@
ешқандай
ешқашан
еште@@
ештеңе@@
ЕЭК
ЕЭО
жа@@
Жа@@
жаб@@
жабай@@
Жабай@@
жабдық@@
жабдықта@@
жабдықтал@@
жабық
Жабық
жабыл@@
Жабысқақ
жағ@@
жаға@@
Жағажа@@
жағажай@@
жағала@@
жағалау@@
жағд@@
жағда@@
Жағда@@
жағдай
жағдай@@
жағдаят@@
жағын@@
жад
жадырағ@@
жадырақ
жаз
жаз@@
Жаз@@
жаза@@
жазала@@
жазалан@@
жазалау@@
жазасыз@@
жазасыздық@@
жазб@@
жазба@@
жазғ@@
Жазғ@@
жазу@@
жазуш@@
Жазуш@@
жазушы@@
Жазушы@@
ЖАЗУШЫ
ЖАЗУШЫЛАР
жазығ@@
жазық@@
Жазық@@
жазыл@@
жай
жай@@
жайла@@
жайлы
жайт
жайт@@
жайыл@@
Жайыл@@
Жак
жақ
жақ@@
Жақ
Жақ@@
жақс@@
жақсар@@
жақсарт@@
жақсарту@@
жақсартыл@@
жақсы
жақсы@@
ЖАҚСЫБЕКОВ
жақсыла@@
жақсылық
жақсылық@@
ЖАҚСЫЛЫҚ
жақсырақ
жақта@@
жақтас@@
жақтаушы@@
жақтырма@@
жақын@@
жақында@@
жақындастыр@@
жақындат@@
жақындығ@@
жал@@
Жал@@
жала@@
жалақ@@
жалақы@@
Жалалабат
жалға@@
жалғас@@
ЖАЛҒАС
жалғастыр@@
жалғастыру@@
жалда@@
жалдамал@@
Жалп@@
жалпы
жалпы@@
жалпыла@@
жалпыұл@@
жалпыхалық@@
жалтар@@
жама@@
Жамал
жаман
жаманда@@
Жамбыл
ЖАМБЫЛ
жан
жан@@
Жан
Жан@@
ЖАН
жана@@
ЖАНАР
жанар-жағарма@@
жанарта@@
жанартау@@
ЖАНАТ
жанашы@@
жандан@@
жандандыр@@
ЖАНДОС
жан-жақ@@
жанжал@@
Жан-Клод
Жанн@@
ЖАННА
жанр@@
Жанр@@
жанталас@@
жану@@
жануар@@
Жануар@@
ЖАНЫНДАҒЫ
жаң@@
жаңа
жаңа@@
Жаңа@@
ЖАҢА
жаңағ@@
жаңалығ@@
жаңалық
жаңалық@@
Жаңалық@@
жаңар@@
жаңарт@@
жаңартыл@@
Жаңартыл@@
жаңаш@@
жаңашыл
жаңашылдық@@
жаңғағ@@
жаңғыр@@
жаңғырт@@
жаңғырту@@
жаңғыртыл@@
ЖАҢҒЫРУ
жап@@
жапалақ
ЖАПАРОВ
жапо@@
Жапо@@
жапон
Жапон
Жапон@@
Жапония
Жапония@@
ЖАПОНИЯ
ЖАПОНИЯНЫҢ
жаппа@@
Жаппа@@
жапырақ
жапырақ@@
Жапырақ
Жапырақ@@
жар@@
Жар@@
жара@@
жарақат
жарақат@@
жарақтал@@
жарас@@
жарат@@
Жарғылық
жария
жариял@@
жарияла@@
жариялан@@
жарияланба@@
жарияланым@@
Жаркент
жарқ@@
Жарқай@@
жарқана@@
жарқанат
жарқыра@@
жарлығ@@
жарлық
жарлық@@
жарна@@
Жарна@@
жарнама@@
жарты@@
жартыжылдығ@@
жартыжылдық@@
жартыла@@
Жартыла@@
жары@@
жарық
жарық@@
Жарық
Жарық@@
жарықтандыр@@
жарыл@@
жарылы@@
жарылыс
жарыс
жарыс@@
Жарыс@@
жас
жас@@
Жас
Жас@@
ЖАС
жаса@@
Жаса@@
жасағ@@
жасақта@@
жасақтал@@
жасал@@
жасалма@@
жасалын@@
жасама@@
жасас@@
жасау@@
жасаушы@@
жасөспірім@@
ЖАСТАР
Жасуш@@
жасуша@@
ЖАСҰЛАН
жасыл
жасыл@@
Жасыл
ЖАСЫЛ
жасыр@@
Жасыр@@
жасырын@@
жасырып-жаб@@
жат
жат@@
Жата@@
жатқан@@
жатқанда@@
жатқандығ@@
жатқандық@@
жатқыз@@
жатпа@@
жаттығ@@
жаттығу@@
жаттықтырушы@@
ЖАТТЫҚТЫРУШЫСЫ
жаты@@
жау@@
жауа@@
Жауа@@
жауаб@@
жауап
жауап@@
жауапкершіліг@@
жауапкершілік
жауапкершілік@@
ЖАУАПТЫ
жаула@@
жауһар@@
жаушылдық@@
жауынг@@
жауынгер@@
жауынгерлік
жауын-шаш@@
жаһа@@
Жаһа@@
жаһан
жаһан@@
Жаһан
жаһандан@@
Жаһандан@@
жаһандану@@
Жаһандану@@
ЖАҺАНДЫҚ
жаю@@
жая
жая@@
Жая@@
жә@@
жәдіг@@
жәдігер@@
ЖӘДІК
жәйт
жәйт@@
Жән@@
жәндік@@
және
ЖӘНЕ
Жәнел
Жәні@@
ЖӘНІБЕК
жәрде@@
жәрдемақ@@
жәрдемақы@@
жәрдемдес@@
жәрмең@@
жәрмеңке@@
Жәрмеңке@@
же@@
Же@@
жеб@@
жег@@
жедел
Жедел
жеделдет@@
Жезқаз@@
жек
ЖЕКЕ
жеке-дар@@
жекеле@@
жекеменшік
жекешелендір@@
Жекпе-жек
Жексұр@@
жел
жел@@
Жел
Жел@@
желе@@
желек@@
желі@@
Желілік
ЖЕЛІСІНІҢ
Желпуіш
желтоқса@@
желтоқсан
желтоқсан@@
Желтоқсан
жем@@
жемі@@
жеміс
жеміс@@
Жеміс
жеміс-жидек
жемқо@@
жемқорлық
жемқорлық@@
Жен@@
Женев@@
жең@@
жеңге@@
жеңі@@
жеңіл
жеңіл@@
Жеңіл
Жеңіл@@
жеңілде@@
жеңілдет@@
жеңілдету@@
жеңілдіг@@
жеңілдік@@
жеңілі@@
жеңілірек
жеңіліс
жеңіліс@@
жеңілме@@
жеңімпаз
жеңімпаз@@
Жеңімпаз@@
ЖЕҢІМПАЗЫ
жеңіс
жеңіс@@
Жеңіс
Жеңіс@@
ЖЕҢІС
ЖЕҢІСБЕК
жер
жер@@
Жер@@
жера@@
Жера@@
жергілік@@
Жергілік@@
Жереми
жерле@@
жерлен@@
жерлес@@
Жерор@@
жерсеріг@@
жертес@@
жет@@
жетекш@@
Жетекш@@
жетекші@@
ЖЕТЕКШІ
жетекшіліг@@
жетекшілік
ЖЕТЕКШІСІ
ЖЕТЕКШІСІНІҢ
жетеле@@
жетерлік
жеті
жеті@@
жетіл@@
жетілдір@@
жетілдіру@@
Жетіс@@
жетіспе@@
жетіспеушіліг@@
жетістіг@@
жетістік@@
жеткіз@@
жеткізбе@@
жеткізіл@@
жеткізілім@@
жеткізу@@
жеткізуші@@
жеткілік@@
жеткіншек@@
жетпе@@
жетпес
жету@@
жж
жж.
ЖЖ
жи@@
Жи@@
ЖИ
ЖИЕНБАЕВ
жиіркеніш@@
жин@@
жина@@
жинағ@@
жинақ
жинақ@@
Жинақ
Жинақ@@
жинақта@@
жинақтал@@
жинақтауш@@
жинал@@
Жинал@@
жиналы@@
жинау@@
Жиренш@@
ЖИРОВ
Жирон@@
Жиск@@
Житниц@@
ЖИТС
ЖИТС-@@
жиһаз
жиы@@
жиын@@
Жиын@@
жиынтығ@@
жиыр@@
Жиыр@@
жиырма@@
жиырмалық
Жиырмасынш@@
жі@@
Жі@@
жіб@@
Жібек@@
ЖІБЕК
жібер@@
жіберме@@
жіберу@@
жігерлендір@@
жігіт@@
жіктел@@
жілік
ЖІӨ
ЖІӨ-@@
жо@@
Жо@@
Жоб@@
жоба
жоба@@
Жоба@@
ЖОБА
жобала@@
ЖОБАЛАР
жобалық
жобас
ЖОБАСЫНЫҢ
жоғ@@
Жоғ@@
жоғал@@
жоғалт@@
жоғалтпа@@
жоғар@@
жоғарғ@@
Жоғарғ@@
ЖОҒАРҒЫ
жоғары@@
ЖОҒАРЫ
жоғарыла@@
жоғарылат@@
Жоз@@
Жозеф
жой@@
жойқ@@
жойыл@@
жоқ
жоқ@@
Жоқ
жоқтығ@@
жол
жол@@
Жол
Жол@@
ЖОЛ
жолағ@@
жолақ@@
Жолақ@@
жолаушы@@
жолбары@@
Жолбарыс
жолғ@@
жолда@@
Жолда@@
жолдама@@
ЖОЛДАРЫ
ЖОЛДАСОВ
жолдау@@
Жолдау@@
ЖОЛЫ
жолы-2018
жомарт
ЖОМАРТ
жон@@
Жоңғ@@
ЖОО
ЖОО-@@
жорамал@@
Жорж
жорық@@
жосп@@
Жосп@@
жоспар
жоспар@@
жоспарл@@
жоспарла@@
жоспарлан@@
жоспарлау@@
жота@@
ЖОШЫБАЕВ
жою
жою@@
жоя
жоя@@
жоят@@
жө@@
жөн
жөн@@
жөнде@@
жөндеу@@
жөнел@@
жөнелт@@
жөнелтіл@@
жөнінде
ЖӨНІНДЕГІ
жу@@
Жу@@
жуа@@
Жуал@@
Жуан
жуғыш
Жуков
Жуковски@@
Жунио@@
ЖУРАВЛЕВ
журнал@@
Журнал
журнали@@
журналис@@
Журналис@@
журналист
ЖУРНАЛИСТ
журналистик@@
Журналистик@@
журналистика@@
жуығ@@
жуық
жуық@@
жуықта@@
жү@@
жүг@@
жүгін@@
жүгірт@@
жүз
жүз@@
Жүз@@
жүзде@@
жүздес@@
жүзе@@
жүй@@
Жүй@@
жүйе@@
Жүйе@@
жүйел@@
жүйелік
Жүйелік
жүйке@@
жүк
жүк@@
Жүк
жүкте@@
жүктел@@
жүктеме@@
жүл@@
жүлде@@
жүлдегер@@
жүр
жүр@@
жүргенде@@
жүргіз@@
жүргізбе@@
жүргізіл@@
жүргізу@@
жүргізуш@@
жүргізуші@@
ЖҮРГІЗУШІ
жүргінші@@
жүрдек
жүре@@
жүрег@@
жүрек
жүрек@@
Жүрек
Жүрек@@
жүріп-тұр@@
Жүс@@
жұ@@
Жұ@@
Жұбанова@@
жұғ@@
жұқ@@
жұқпал@@
Жұқпал@@
жұқтыр@@
жұл@@
жұлдыз
жұлдыз@@
Жұлдыз
Жұлдыз@@
жұм@@
Жұм@@
Жұмабаев
Жұмабаев@@
ЖҰМАБЕК
ЖҰМАҒАЛИЕВ
ЖҰМАҒАЛИЕВА
ЖҰМАҒҰЛОВ
жұмс@@
жұмса@@
жұмсал@@
жұмсарт@@
жұмсау@@
жұмы@@
жұмыл@@
жұмылдыр@@
жұмылдырыл@@
жұмыс
жұмыс@@
Жұмыс
Жұмыс@@
ЖҰМЫС
жұмыссыз@@
Жұмыссыз@@
жұмыссыздық@@
жұмысш@@
жұмысшы@@
Жұмысшы@@
жұр@@
жұрт
жұрт@@
жұртшылығ@@
жұртшылық
жұртшылық@@
жұт@@
ЖШС
жы@@
Жы@@
жығ@@
жығыл@@
жыл
жыл@@
Жыл
Жыл@@
жыла@@
жылан
жылан@@
жылғ@@
жылғыда@@
жылда@@
жылдам@@
Жылдам@@
жылдамда@@
жылдамдат@@
жылдамдығ@@
жылдамдық@@
жылдан-жыл@@
жылдығ@@
жылдық@@
жылж@@
жылжы@@
жылжыма@@
Жылжыма@@
жылжымал@@
жылжыт@@
жылқ@@
Жылқ@@
жылқы@@
Жылулық
жылыжа@@
жылыжайлық
жылын@@
жылыну@@
жылыт@@
жын@@
Жын@@
жыны@@
жыныс
жыныс@@
Жыныс
жыра@@
Жээнбеков
Жюль
з
за@@
За@@
Зайсан
зайырл@@
Зак
Закария
зақымда@@
зал@@
залал
залал@@
Зальцбург
Зальцведель
зама@@
заман
заман@@
заманауи
Заманауи
заманғ@@
Замбия
заң
заң@@
Заң@@
ЗАҢ
заңгер@@
заңдастыр@@
заңдылығ@@
заңдылық
заңна@@
заңнама@@
заңнамалық
зар@@
Зар@@
зарда@@
зардаб@@
зардап@@
Зарин@@
зат
зат@@
зауы@@
Зауы@@
зауыт
зауыт@@
Зауыт
Зауыт@@
ЗАУЫТ
ЗАУЫТТЫҢ
ЗАУЫТЫ
ЗАУЫТЫНЫҢ
Зә@@
Зәйд
Зәйтүн
зәр@@
ЗӘУРЕ
Звез@@
зе@@
Зе@@
Зейн
зейнет
зейнет@@
зейнетақ@@
зейнетақы@@
зейнеткер@@
ЗЕЙНОЛЛА
Зеландия
Зёмме@@
Зен@@
Зенит
Зенон
зеңбірек
Зербо
ЗЕРГЕР
зергерлік
Зергерлік
ЗЕРДЕ
зерделе@@
Зере@@
зертте@@
Зертте@@
зерттел@@
зерттеу@@
Зерттеу@@
ЗЕРТТЕУ
ЗЕРТТЕУЛЕР
зерттеуші@@
зертхан@@
зертхана@@
ЗЕРТХАНА
Зи@@
Зимбабв@@
зир@@
зира@@
зия@@
зиял@@
зиян
зиян@@
зияткерлік
Зияткерлік
ЗИЯТКЕРЛІК
ЗМ
зо@@
Зо@@
зона@@
Зонд
зондта@@
Зоннеберг
зоолог@@
Зоология
зорлық-зомбылық
зорлық-зомбылық@@
ЗУРАБ
Зүлфия
ЗҮЛФИЯ
Зұлқарн@@
зұлым@@
Зығы@@
зымыра@@
зымыран
зымыран@@
Зымыран@@
и
И
Иә
Иберия
ибн
Ибн
Ибрагимов
ИБРАЕВ
Ибраһи@@
Иван
ИВАН
Иванов
Иванович
Ивановн@@
Иваново
Ивелин
ИВЕТА
Иво
Иву@@
иг@@
Иг@@
игер@@
игіліг@@
игілік
игілік@@
Игл
Игорь
ИГОРЬ
Идеал
идеология
идеология@@
идеологиялық
идея
идея@@
ИДМ
Идрис
ие
ие@@
иег@@
иегер@@
иек
иеле@@
иелен@@
иеліг@@
иелік
иемден@@
иерархия@@
Иж@@
Из@@
изоляциониз@@
Изонцо
Изотоп@@
Израиль
Израиль@@
ИЗРАИЛЬ
ИИД
ике@@
икемділіг@@
икемділік
Икс
илан@@
иландыр@@
иллиберал
Иллиберал
Иллинойс
Иль
Ильич
Илья
Има@@
ИМАҚОВА
ИМАНБАЕВА
имидж@@
иммигрант@@
Иммигрант@@
иммиграция
иммиграция@@
Иммиграция
иммунитет
императив@@
император@@
империя
империя@@
Империя
Империя@@
империялық
импор@@
Импор@@
импорт
импорт@@
Импорт
импортта@@
импорттал@@
импорттауш@@
импорттаушы@@
импульс
Ин
Ин@@
ИН
инаугурация@@
инвестиция
инвестиция@@
Инвестиция
Инвестиция@@
ИНВЕСТИЦИЯ
инвестицияла@@
ИНВЕСТИЦИЯЛАР
инвестициялық
Инвестициялық
ИНВЕСТИЦИЯЛЫҚ
инвесто@@
инвестор@@
Инвестор@@
ИНВЕСТОР
индек@@
индекс
индекс@@
Индиан
Индиан@@
Индианол@@
индивидуализ@@
Индивидуализ@@
индикато@@
Индикато@@
индикатор@@
Индонезия
Индонезия@@
индукция
индустриа@@
ИНДУСТРИАЛДЫ-ИННОВАЦИЯЛЫҚ
индустрия
индустрия@@
Индустрия
индустрияландыр@@
индустриялық
Индустриялық
ИНДУСТРИЯЛЫҚ
индустриялық-инновациялық
ИНДУСТРИЯСЫ
Индэпенденс
Инерция
инженер@@
инженерия
ИНЖЕНЕРІ
инженерлік
ИНЖЕНЕРЛІК
инжиниринг
инжиниринг@@
инклюзив@@
инноватор@@
инновация
инновация@@
инновациялық
Инновациялық
Иннокенти@@
иновация@@
институ@@
институт
институт@@
Институт
ИНСТИТУТЫ
ИНСТИТУТЫНЫҢ
институциона@@
Интегра@@
интеграл
интеграция
интеграция@@
Интеграция
ИНТЕГРАЦИЯ
интеграцияла@@
интеграциялан@@
интеграциялық
интеллек@@
интеллект
интеллектуа@@
Интельви
интерактив@@
интервенция
интервенция@@
интернационал
интернационалист
интерне@@
Интерне@@
интернет
интернет@@
Интернет
Интернет@@
Интернет-платфор@@
Интернет-платформа@@
Интерфакс-Қазақс@@
инфекция
инфляция
инфляция@@
Инфляция
Инфляция@@
инфляциялық
информатик@@
Информатик@@
инфрақұрыл@@
Инфрақұрыл@@
инфрақұрылым@@
Инфрақұрылым@@
инфроқұрыл@@
Инчхон
Иоанн
Иоганн
Ион
Ион@@
Иордания
Иосиф
Иосифович
ипотек@@
ипотекалық
Ира@@
Ирак
Ирак@@
Иракли@@
Иран
Иран@@
ирандық@@
Ирвин
Ирвинг
Ирин@@
ИРИНА
Иркутск
Ирландия
Ирландия@@
Ис@@
Иса@@
Исаак
Исаакович
ИСАҒАЛИЕВ
Исата@@
Искр@@
исла@@
Исла@@
ислам@@
Ислам@@
ИСЛАМ
ИСЛАМДЫҚ
Исландия
Исландия@@
Исмаил
испан
Испан
Испания
Испания@@
ИСПАНИЯ
Ист
истеблишмен@@
истеблишмент@@
Истеблишмент@@
Истон
Исфаһан
ит
ит@@
Ит
Ит@@
Италия
Италия@@
ИТАЛИЯ
италиялық
италиялық@@
Италиялық
Италиян
ИТАЛИЯНЫҢ
италья@@
итальян
итбалық@@
итер@@
итермел@@
итермеле@@
Итон
ИТП
ИЫҰ
Иэн
і
і@@
І
ІЖӨ-@@
ІЖӨ-ім@@
із
із@@
ізаш@@
ізбас@@
Ізгілік
ізде@@
Ізде@@
іздестір@@
іздеу@@
ІІ
ІІІ
іл@@
Іл@@
ілг@@
ілгеріле@@
ілгерілет@@
іле@@
ілес@@
Ілияс
ілік@@
ілім@@
ілін@@
ілме@@
ім
ім@@
ін
ін@@
ің
ің@@
іп
іп@@
ір@@
Ір@@
ірге@@
іргета@@
ірі
ірікте@@
іріктел@@
ірімшік
ірімшік@@
ірітк@@
іс
іс@@
Іс
Іс@@
іс-әрек@@
іс-әрекет
іс-әрекет@@
ісіг@@
ісік
іскер@@
ІСКЕР
іскерлік
Іскерлік
ІСКЕРЛІК
іс-қимыл
іс-қимыл@@
іспе@@
іспеттес
іст@@
істе@@
істел@@
істеме@@
ІСТЕР
ІСТЕРІ
істес@@
істеу@@
іс-шар@@
іс-шара@@
Іс-шара@@
ІТ
іш@@
Іш
Іш@@
ішек
ішек@@
ішімдік@@
ішінар@@
ішк@@
Ішк@@
ІШКІ
й
й@@
Йе@@
Йеллен
Йеллен@@
Йель
Йеме@@
Йемен@@
Йенс
Йерихов
Йоан
Йоахи@@
Йозеф
Йонг
ЙОНГ
Йонн@@
Йорк
Йохан
йтін@@
йтын@@
йық
йын
-к@@
К
Ка@@
кабине@@
кабинет
кабинет@@
Кабул
Кабул@@
КАВАМУРА
Кавендиш
Кавказ
кад@@
Кадис
кадр@@
Казвини
казі@@
Каи@@
Как@@
Кал@@
Калатрав@@
Каледони@@
Кали@@
Калифорния
Калифорния@@
Калхоун
Кальвадос
Кальтаниссет@@
Кальци@@
Кам@@
Камбодж@@
Камдэн
камер@@
камера@@
камералық
Камерун
КАМИЛА
Камиль
Кампань
Кампбэлл
Кампо
Камчатск
Кан
Кан@@
КАН
Кана@@
Канаан
Канада@@
Канадалық
канал@@
Канал
кандида@@
кандидат
кандидат@@
кандидатура@@
КАНДИДАТЫ
Канзас
Канн
Канн@@
Каннибализ@@
каноэ@@
Кант
Кантабрия
Канталь
Кантел@@
Кантон
канц@@
Каңвондо
КАПАННЕЛЛИ
Капи@@
капита@@
Капита@@
капитал
капитал@@
Капитал
капиталдандыр@@
капитализ@@
Капитализ@@
капитализация@@
капитализм@@
Каппель
Каппельн
капсул@@
кар@@
Кар@@
Карачи
Карбон
кардиохирург@@
КАРДИОХИРУРГИЯ
Карел
Карен
Кариб
карикатура@@
Каримов
Карл
Карл@@
Карлисл
Карло
Карлов
Карлос
Карлсруэ
Карлтон
Карнеги
Карнеги-холл
Карни@@
Карно
Каролин@@
Карпен@@
Карр@@
Карроллтон
Карсон
карта@@
Карта@@
КАРТАСЫ
картин@@
картина@@
Карто@@
карточка@@
карьера@@
Кас@@
Каси@@
Каскад
Каскэйд
Касп@@
Каспи@@
Каспий@@
Касс
касса@@
Кассель
Кастан@@
Кастелл
Кастель-д
Кастийон
Кастилия
Кастильоне-д
Кастл
Кастро
катализато@@
каталог@@
Катарин@@
Като
Катрин
Каунтри
КАФ
КАФЕДРАСЫНЫҢ
Ках@@
Качиньски@@
Кашинг
Кашми@@
Кашуэйринья
Кая
кә@@
Кә@@
кәде@@
кәдесый@@
Кәдімг@@
кәс@@
Кәс@@
кәсі@@
кәсіб@@
кәсіби
Кәсіби
кәсіп@@
кәсіпк@@
кәсіпкер@@
Кәсіпкер@@
КӘСІПКЕР
КӘСІПКЕРЛЕР
кәсіпкерліг@@
кәсіпкерлік
кәсіпкерлік@@
Кәсіпкерлік@@
КӘСІПКЕРЛІК
кәсіпқо@@
Кәсіпо@@
кәсіподақ
кәсіподақ@@
кәсіпор@@
Кәсіпор@@
кәсіпорн@@
кәсіпорын@@
Кәсіпорын@@
КӘСІПОРЫН
КӘСІПОРЫННЫҢ
КБЖ
КБЖ-@@
Квадра@@
кван@@
Кван@@
кварц
Квентин
Квинсленд
кво@@
кг
КГБ-@@
КДБ
ке
ке@@
Ке@@
Кевин
кеде@@
Кеде@@
кедей@@
кедейлендір@@
кедейлік
кедейлік@@
кедейшілік@@
КЕДЕНДІК
кедерг@@
кедергі@@
кез
кез@@
Кез
кезде@@
кездейсоқ
кездейсоқ@@
Кездейсоқ
кездес@@
Кездес@@
кездестір@@
кездесу@@
кезе@@
Кезе@@
кезег@@
кезек@@
Кезек@@
кезең@@
кезең-кезе@@
кезіндегіде@@
кез-кел@@
кей
кей@@
Кей@@
кейбі@@
Кейбі@@
кейбір
кейбір@@
кейбіреу@@
Кейбіреу@@
кейін
кейін@@
Кейін@@
кейінг@@
Кейінг@@
кейінірек
кейіп@@
кейіпк@@
кейіпкер@@
Кейн
Кейн@@
Кейнс
Кейнсиа@@
Кейс
Кейт
кек
Кек
кел@@
Кел@@
келб@@
келбет@@
келгенш@@
келе@@
Келе@@
Келел@@
келесі@@
келешег@@
келешек
келешек@@
Келешек@@
келі
келі@@
Келімбетов
Келімбетов@@
КЕЛІМБЕТОВ
келіс@@
Келіс@@
келісім@@
Келісім@@
келісім-шар@@
келісім-шарт
келісім-шарт@@
келісімшарт
келісімшарт@@
келіспе@@
келіспеушілік@@
келіссөз
келіссөз@@
Келіссөз@@
Келли
келм@@
келме@@
келмес@@
келтір@@
келтіріл@@
келтірме@@
келтіру@@
келу@@
келуші@@
Келуші@@
КЕЛУШІ
Кельт
Кельхай@@
кем@@
Кем@@
Кемал
Кембридж
Кембридж@@
КЕМБРИДЖ
кеме@@
кеми@@
кемі@@
кемсіт@@
кемсіту@@
кемсітушілік@@
кемшіліг@@
кемшілік@@
кен
кен@@
Кен@@
Кендалл
кене@@
Кене@@
кенел@@
кенет
кенет@@
КЕНЖЕБОЛАТ
КЕНЖЕХАНҰЛЫ
Кения
кені
кеніш@@
Кеннеди
Кеннет
Кенсингтон
Кент
Кента@@
Кентукки
кең@@
Кең@@
кеңе@@
Кеңе@@
кеңей@@
кеңейт@@
кеңейтіл@@
кеңейту@@
кеңес
кеңес@@
Кеңес
КЕҢЕС
КЕҢЕСІ
КЕҢЕСІНІҢ
КЕҢЕСТІҢ
кеңесші@@
КЕҢЕСШІСІ
кеңею@@
кеңірек
кеңістіг@@
кеңістік@@
кеңқол@@
кеңсе@@
КЕҢСЕСІНІҢ
кеп@@
Кеп@@
кепіл
кепіл@@
кепілдіг@@
кепілдік@@
кер
Кер@@
Кере@@
керег@@
керек
керек@@
керек-ақ
керектіг@@
кереме@@
керемет
керісінш@@
Керісінш@@
Керне@@
кес@@
Кес@@
кесене@@
кесі@@
кесіл@@
кесір@@
кесірт@@
кесіртке@@
кеск@@
кесте@@
кет@@
кетерліг@@
кетір@@
кеткенде@@
кеткендік@@
кетпе@@
кетпес
кету@@
Кеуек@@
кеш
кеш@@
Кеш@@
кеше@@
кешен
кешен@@
КЕШЕНІНІҢ
кеші@@
кешір@@
ки@@
Ки@@
киб@@
киберсоғыс
кибершабуыл
Кив@@
Киев
Киев@@
киел@@
Киел@@
Киз
киіз
киіз@@
киік
киім
киім@@
киім-кешек
кикілж@@
кикілжің@@
киліг@@
Килкенни
киловатт
километ@@
Киль
КИМ
Кинберг
Кинг
Кингстон
кинематограф@@
кинематография@@
кино
кино@@
Кино
КИНО
киножүлде@@
киноиндустрия
кинокартина@@
кинооператор@@
киноөндіріс
Кинопродюсер@@
КИНОПРОДЮСЕР
кинорежисс@@
КИНОРЕЖИССЕР
кинорежиссёр@@
киностудия@@
кинофестивал@@
КИНОФЕСТИВАЛІ
кинофестиваль
кинофестиваль@@
Кинофестиваль@@
Кинтарелли
Киото
Кип@@
Кир@@
Кирибати
Кирилл
Кириллиц@@
Кирхберг
Кирхгай@@
Кирхдорф
кит
кит@@
Кит
Китцин@@
кі@@
Кі@@
кібіртікте@@
кіз@@
кіл@@
кіле@@
Кіле@@
кілем@@
кілт
кім
кінә
кінә@@
кінәл@@
кінәла@@
кір@@
кіргіз@@
кірі@@
кіріг@@
кіріс
кіріс@@
КІРІСТЕР
кірме@@
кіру@@
кісі
кісі@@
кіта@@
Кіта@@
кітаб@@
кітап@@
Кітап@@
КІТАП
КІТАПТАР
кітапхан@@
кітапхана@@
Кітапхана@@
КІТАПХАНА
КІТАПХАНАСЫ
КІТАПХАНАСЫНЫҢ
КІТАПХАНАШЫ
Кіш@@
кіші
кішігі@@
кішірей@@
кішірек
кішкен@@
Кішкен@@
кішкента@@
Кішкента@@
Кл@@
кла@@
Клаб
Клавди@@
Клапейрон
Клар@@
КЛАРА
Кларк
Кларксвилл
Кларксон
клас@@
Клас@@
класс
классик@@
классика@@
классикалық
Классикалық
кластер@@
Клаудио
Клаус
Клевиль
Клери
Кли@@
клиен@@
клиент
клиент@@
клима@@
Клима@@
климат
климат@@
Климат
Клинтон
Клинтон@@
Клифтон
Клиффорд
Клод
Клоппенбург
Клоуд
клуб
клуб@@
КЛУБ
КЛУБЫНЫҢ
Клэ@@
Клэй@@
Клэйтон
Кнут
ко@@
Ко@@
КО
коалиция
коалиция@@
коалициялық
Кобленц
Кобург
Когнитив@@
код
код@@
кодек@@
Кодек@@
кодекс
Кодекс
КОКП
Кол@@
колледж
колледж@@
Колледж
КОЛЛЕДЖІНІҢ
коллекция@@
Коллинз
Коллинс
Коломбь@@
Колорадо
Колумбас
Колумби@@
Колумбия
Колумбус
коман@@
Коман@@
команда@@
Командалық
комбина@@
комедия
комедия@@
Коми
Комикс
комисс@@
КОМИССАРЫ
КОМИССАРЫНЫҢ
комиссия
комиссия@@
Комиссия
Комиссия@@
КОМИССИЯНЫҢ
комит@@
комите@@
комитет
комитет@@
КОМИТЕТІ
КОМИТЕТІНІҢ
коммерция
коммерция@@
коммерцияландыр@@
коммерциялық
КОММЕРЦИЯЛЫҚ
коммуна@@
коммуни@@
Коммуни@@
коммуниз@@
Коммуниз@@
коммуникация
коммуникация@@
Коммуникация
КОММУНИКАЦИЯЛАР
коммуникациялық
коммунис@@
Комнин
Комо
Комо@@
Комон
компания
компания@@
Компания
Компания@@
КОМПАНИЯ
КОМПАНИЯНЫҢ
КОМПАНИЯСЫ
КОМПАНИЯСЫНЫҢ
Компартия@@
комплект
композито@@
композитор@@
КОМПОЗИТОР
композиция@@
компонен@@
компонент@@
компромис@@
компью@@
Компью@@
компьютер@@
Компьютер@@
компьютерлік
Компьютерлік
Комсомол
Кон@@
конвенция
конвенция@@
Конвенция
Конвенция@@
Конвэ@@
Конго
конгре@@
Конгре@@
Конгрес@@
КОНГРЕСІНІҢ
конгресс
Конгресс
Конгресс@@
конденсат
конденсато@@
кондитерлік
КОНКАКАФ
Конкорд
конкур@@
конкурс@@
Коннектикут
Конрад
консалтинг
консалтинг@@
консенсу@@
консерв@@
консерватив@@
Консерватив@@
консервато@@
консерватор@@
консерватория@@
консерві@@
консорциум@@
Константин
Константин@@
КОНСТАНТИН
Константинович
Константиново
конституция
конституция@@
Конституция
Конституция@@
конституциялық
Конституциялық
конструктив@@
конструкция@@
консулдығ@@
КОНСУЛЫ
консультатив@@
КОНСУЛЬТАТИВТІК
Контвиль
контейн@@
контейнер@@
контекс@@
контекст
контекст@@
контен@@
контент
контент@@
континен@@
Континен@@
Конфедерация@@
конференция
конференция@@
Конференция
Конференция@@
Конфигурация
конфликт
конфликт@@
конфликті@@
Конфуци@@
концепция@@
концер@@
концерт
концерт@@
Концерт
Концерт@@
кооператив@@
КООПЕРАТИВІНІҢ
координат@@
Копенга@@
Кор@@
Корбин
Кордов@@
коре@@
Коре@@
корей@@
КОРЕЙ
Корея
Корея@@
КОРЕЯ
Корея-АСЕАН
кореялық
КОРЕЯНЫҢ
Корни@@
Корниш
корол@@
король@@
Король
Король@@
Корольдіг@@
корольдік@@
Корольдік@@
корпоратив@@
Корпоратив@@
корпорация
корпорация@@
КОРПОРАЦИЯСЫНЫҢ
корпу@@
Корре@@
Корреа@@
Коррез
Корсик@@
Кортес
Кос@@
космополит
космополитиз@@
Косово
Коста-Рик@@
костю@@
костюм@@
Косфельд
Кот@@
Кот-д
Коттонвуд
Коул
Коф@@
Кофи
Кох
Коэн
КОЭН
коэффициен@@
коэффициент@@
кө@@
Кө@@
көб@@
Көб@@
көбе@@
көбей@@
көбейт@@
көбейту@@
көбелег@@
көбелек
көбелек@@
КӨБЕНОВ
көбею
көбею@@
Көбею
көбі@@
көбіне@@
көбіне-кө@@
көбірек
көгал@@
көгілді@@
Көгілді@@
көз
көз@@
Көз
Көз@@
көзайым@@
көзбояушылық
көзде@@
көздел@@
КӨЗІ
көзқара@@
көзқарас
көзқарас@@
көк
Көк
көкей@@
көкжиег@@
Көкжиек-2020
Көкірек
көкнә@@
көкөніс
көкөніс@@
көкп@@
Көкп@@
көкте@@
Көкте@@
көктем@@
көктемг@@
Көктөб@@
Көкшета@@
Көкшіл
көл
көл@@
Көлдене@@
көле@@
Көле@@
көлем
көлем@@
көлең@@
көлеңке@@
көліг@@
көлік
көлік@@
Көлік
Көлік@@
КӨЛІК
көлік-логистик@@
көлік-логистикалық
көліктік-логистикалық
Көлса@@
көм@@
көмег@@
көмек@@
көмекте@@
көмектес@@
көмектеспе@@
көмекш@@
көмекші@@
КӨМЕКШІСІ
көмі@@
Көмі@@
көмір@@
Көмір@@
көмірқышқыл
Көмірқышқыл
көміртек
көміртек@@
Көміртек
көн@@
Көн@@
көндір@@
көне@@
көншітпе@@
көң@@
көңіл
көңіл@@
көңіл-кү@@
көңіл-күй@@
көп
көп@@
көпжақ@@
Көпжақ@@
көпжақтылық
көпжақтылық@@
Көпжақтылық
көпі@@
көпір@@
көпіршіг@@
көпіршік
көпіршік@@
Көпіршік@@
көпте@@
Көпте@@
көптіг@@
көпұл@@
көпшіліг@@
көпшілік
көпшілік@@
Көпшілік@@
көр@@
Көр@@
көре@@
көрер@@
Көрер@@
көрерме@@
көрермен@@
Көрермен@@
КӨРЕРМЕН
көрік@@
көрін@@
көрінбе@@
көріні@@
көрініс
көрініс@@
көрк@@
көрке@@
Көрке@@
КӨРКЕМ
КӨРКЕМДІК
көрме@@
Көрме@@
КӨРМЕ
КӨРМЕГЕ
КӨРМЕСІНДЕГІ
КӨРМЕСІНІҢ
көрнек@@
көрсе@@
көрсет@@
Көрсет@@
көрсетіл@@
көрсетілгенде@@
көрсетілме@@
көрсеткенде@@
көрсеткенінде@@
көрсеткіш
көрсеткіш@@
көрсетпе@@
көрсету@@
көрш@@
көрші@@
көршілес
Көршілес
көсем@@
көтер@@
көтеріл@@
көтерілі@@
көтеріліс@@
көтеру@@
көш
көш@@
Көш@@
көшбасш@@
көшбасшы@@
көшбасшылығ@@
көшбасшылық
көшбасшылық@@
көше@@
көші-қо@@
көші-қон
көшіп-қон@@
көшіп-қону@@
көшір@@
Көшір@@
көшірме@@
КӨШКІМБАЕВ
көшпе@@
көшпел@@
көшпенді@@
Көшпенді@@
көшу@@
кра@@
Краков
Крам@@
Красно@@
крахмал
Кре@@
креатив@@
креди@@
кредит
кредит@@
кредитор@@
Крез
Крейг
Кремль
Кремль@@
Кремни@@
крест
Крест
Крик
криптовалю@@
Криптовалю@@
криптовалюта@@
Крис
Крис@@
Кристал
Кристиан
КРИСТИАН
Кристин
Кристин@@
Кристоф
Кристоф@@
критерий@@
Криштел@@
Крол
Кромвэлл
Кронах
Крофтон
Кру@@
Круази@@
Крукстон
Крылов
Крэйг
КСРО
КСРО-@@
Ку@@
Куан
куә
Куб
Куб@@
Куба@@
кубог@@
Кубог@@
Кувейт
Кувейт@@
КУВЕЙТ
Кузин
Кузнецов
Кук
Куксхафен
Кул
Кулон
Кум@@
КУМАР
Кун
Кунья
Куп@@
кур@@
Кур@@
КУРАТОРЫ
курор@@
курорт@@
курс@@
Курси
Курск
Курт
Курчатов
Кустуриц@@
кү@@
Кү@@
күдік@@
күз@@
күзе@@
КҮЗЕМБАЕВ
күй@@
күйе@@
күйзеліс@@
күйре@@
күйрет@@
күйреу@@
КҮЙШІ
күл@@
КҮЛӘЙША
Күләш
күллі
күмә@@
күмән
күмән@@
күмәндан@@
күміс
күміс@@
Күміс
күн
күн@@
Күн
Күн@@
КҮН
күнбағыс
күнделік@@
Күнделік@@
КҮНДЕРІ
КҮНІ
күнтіз@@
Күнтізб@@
Күншығыс
Күңгірт
күр@@
күрдел@@
Күрдел@@
күрделіліг@@
Күрделілік
күрделірек
күре@@
күрес
күрес@@
Күрес
Күрес@@
күресу@@
күріш@@
күрт
Күрш@@
күт@@
күтіл@@
күткенде@@
күткендегі@@
күтпе@@
күш
күш@@
Күш
Күш@@
күшей@@
күшейт@@
күшейту@@
күшею@@
күш-жіг@@
күш-қу@@
күш-қуа@@
күш-қуат@@
күште@@
күшті@@
күштірек
КХДР
Кын
Кэй@@
Кэйв
Кэмбридж
Кэмерон
Кэмпбелл
Кэри
Кэрролл
Кэти
Кэтрин
Кэцян
Кю@@
Кювервиль
Кюри
Қ
қа
қа@@
Қа@@
қаб@@
қаба@@
қабат
қабат@@
қабіл@@
қабіле@@
қабілет
қабілет@@
қабілеттіліг@@
қабілеттілік
қабілеттілік@@
қабы@@
қабығ@@
ҚАБЫКЕНОВ
қабық
қабыл@@
Қабылан
Қабылбаев
қабылда@@
қабылдама@@
қабылдан@@
Қабылдан@@
қабылданба@@
қабылдат@@
қабылдау@@
қабылдауш@@
қабылдаушы@@
қабын@@
қабырға@@
Қабыршақ
қағ@@
қағаз
қағаз@@
Қағаз
қаған@@
қағана@@
қағандығ@@
қағида@@
қағидат@@
қада@@
қадағала@@
ҚАДАҒАЛАУ
қадам@@
қаді@@
қадір-қаси@@
қаж@@
Қаж@@
қаже@@
қажет
қажет@@
қажеттіг@@
қажеттіліг@@
қажеттілік
қажеттілік@@
қаз
қаз@@
Қаз
Қаз@@
қаза@@
қазақ
қазақ@@
Қазақ
Қазақ@@
ҚАЗАҚ
қазақ-қыр@@
қазақ-қыта@@
Қазақмыс
ҚазАқпарат
қазақс@@
Қазақс@@
қазақста@@
Қазақста@@
қазақстан@@
Қазақстан@@
ҚАЗАҚСТАН
Қазақстан-АҚШ
Қазақстан-Әзербайжан
ҚАЗАҚСТАН-ӘЗЕРБАЙЖАН
Қазақстан-Беларусь
Қазақстан-Бри@@
ҚАЗАҚСТАН-ГРУЗИЯ
ҚАЗАҚСТАНДАҒЫ
қазақстандық@@
Қазақстандық@@
ҚАЗАҚСТАНДЫҚ
Қазақстан-ЕО
Қазақстан-Жапония
Қазақстан-Кана@@
Қазақстан-Қырғызс@@
Қазақстан-Қыта@@
ҚАЗАҚСТАН-ҚЫТАЙ
Қазақстан-Латвия
ҚАЗАҚСТАНМЕН
ҚАЗАҚСТАННЫҢ
Қазақстан-Оңтү@@
Қазақстан-Өзбекс@@
ҚАЗАҚСТАН-ӨЗБЕКСТАН
Қазақстан-Польш@@
Қазақстан-Ресе@@
Қазақстан-Словения
Қазақстан-Түркіменстан-Иран
Қазақстан-Ұлыбритания
Қазақстан-Франция
Қазақ-түрік
Қазақфиль@@
қазақш@@
Қазақш@@
қазақша@@
қазан
қазан@@
Қазан
Қазан@@
қазб@@
қазба@@
қазі@@
Қазі@@
қазір-ақ
қазірг@@
Қазірг@@
қазіргіде@@
қазірш@@
ҚазТАГ
қазы@@
Қазы@@
ҚАЗЫЛАР
қазына@@
Қазынашылығ@@
қазынашылық
Қазынашылық
Қазынашылық@@
қай
қай@@
Қай@@
қайғыл@@
қайн@@
қайрат@@
Қайрат
ҚАЙРАТ
қайратк@@
қайраткер@@
ҚАЙРАТКЕРІ
қайсы@@
қайт@@
қайта@@
ҚАЙТА
қайта-қай@@
қайтала@@
қайталама@@
қайталан@@
қайталанбас
қайтар@@
қайтарыл@@
қайтарым@@
қайтпа@@
қайтыс
Қайтыс
қайш@@
қайшылық@@
қайырыл@@
қайырымдылық
Қайырымдылық
қақ@@
қақп@@
қақпа@@
қақпан@@
қақты@@
қақтығ@@
қақтығыс
қақтығыс@@
қал@@
Қал@@
қала
қала@@
Қала@@
ҚАЛА
қалайш@@
қалалық
Қалалық
ҚАЛАЛЫҚ
қалама@@
қалан@@
қаларлық
ҚАЛАСЫ
ҚАЛАСЫНДАҒЫ
ҚАЛАСЫНЫҢ
қалау@@
қалауш@@
қалаушы@@
ҚАЛАУШЫ
қалашығ@@
қалашық@@
қалғанда@@
қалдығ@@
қалдық@@
қалдыр@@
қалдырарлық
қалдырм@@
қалдырма@@
қалдыру@@
қалдырыл@@
Қалқаманұл@@
қалм@@
қалма@@
қалп@@
Қалп@@
қалт
қалта@@
Қалтал@@
қалтарыс@@
қалу@@
қалы
қалып@@
қалыпта@@
қалыптас@@
Қалыптас@@
қалыптастыр@@
қалыптастыру@@
қам@@
қама@@
қамал@@
қамдан@@
қамқорлығ@@
қамсыздандыр@@
қамт@@
қамта@@
қамти
қамти@@
қамтит@@
қамту@@
қамты@@
қамтыл@@
Қамыс
қан
қан@@
Қан
қана
қана@@
қанағаттандыр@@
қанат
Қанат
ҚАНАТ
қанаттандыр@@
қанатты@@
қанда@@
Қанда@@
қандала@@
қант
Қант
қантөгіс
қантөгіс@@
қанш@@
қанша@@
қаншалық
қаншалық@@
қаны
Қаныш
қаң@@
Қаң@@
қаңқа@@
қаңтар-маус@@
қаңтар-наурыз
қаңтар-шіл@@
қап@@
қапта@@
Қапша@@
қар@@
Қар@@
қара@@
Қара@@
ҚАРА
қарабайы@@
Қарабас
Қарабұлақ
Қарағанды@@
ҚАРАҒАНДЫ
Қарағандылық
қараж@@
қаража@@
қаражат
қаражат@@
қарай
Қаракөл
Қарақалпақс@@
Қарақия
қарақшы@@
қарал@@
қарама@@
қарама-қайш@@
қарама-қайшылық@@
қарама-қар@@
қарамастан
қараңғ@@
қарапай@@
Қарапай@@
қарас@@
қарастыр@@
қарастырма@@
қарастыру@@
қарастырыл@@
қарастырылма@@
Қарата@@
Қаратөб@@
қарау@@
Қарахан
қараш@@
Қараш@@
қараша@@
Қараша@@
қарашұб@@
Қарашығанақ
Қарбалас
Қарға@@
қарж@@
Қарж@@
қаржы
қаржы@@
ҚАРЖЫ
қаржыг@@
қаржыгер@@
қаржыла@@
қаржыландыр@@
Қаржыландыр@@
қаржыландыру@@
ҚАРЖЫЛАНДЫРУ
қаржыландырыл@@
қаржылық
Қаржылық
қаржы-неси@@
Қаржы-неси@@
ҚАРИН
қаріп@@
қарқ@@
Қарқарал@@
қарқы@@
қарқылдақ
қарқын@@
қарқындылығ@@
қарлығаш@@
ҚАРЛЫҒАШ
қарп@@
қарсаң@@
қарсы
қарсы@@
қарсыла@@
қарсылас
қарсылас@@
қарсылығ@@
қарсылық
қарсылық@@
қарт
қарт@@
қартай@@
қартаю@@
қару@@
қару-жарақ
қару-жарақ@@
қарул@@
Қарул@@
қарулан@@
қарусыздан@@
қарусыздандыр@@
Қаршы@@
қарыз
қарыз@@
қарым@@
қарым-қатына@@
қарым-қатынас
қарым-қатынас@@
қарышта@@
қас
Қас@@
ҚАСЕНОВ
қасие@@
Қасие@@
қасиет@@
ҚАСИЕТТІ
қасіре@@
қасқы@@
қаста@@
Қастеев
Қасым@@
ҚАСЫМБЕК
қат@@
қата@@
Қата@@
қатал
қатаңдат@@
қатар
қатарл@@
қате@@
қателес@@
қателеспе@@
қателік
қателік@@
қатер@@
қатерл@@
қаты@@
қатыгез
қатыгездік@@
қатына@@
қатынас
қатынас@@
Қатынас
ҚАТЫНАСТАР
қатыр@@
қатыс@@
қатысқан@@
қатыспа@@
қатыстыр@@
қатысу@@
қатысуш@@
Қатысуш@@
қатысушы@@
Қатысушы@@
ҚАТЫСУШЫ
ҚАТЫСУШЫСЫ
қау@@
Қау@@
қауіп@@
қауіп-қа@@
қауіп-қатер@@
қауіпсіз@@
Қауіпсіз@@
қауіпсіздендір@@
қауіпсіздіг@@
қауіпсіздік@@
ҚАУІПСІЗДІК
қауіптен@@
қауқ@@
қауқарл@@
қаулы@@
қауп@@
қауым
қауым@@
қауымда@@
қауымдастығ@@
Қауымдастығ@@
ҚАУЫМДАСТЫҒЫ
ҚАУЫМДАСТЫҒЫНЫҢ
қауымдастық@@
қаһарма@@
қаш@@
Қаша@@
қашан
қашан@@
қашық@@
қашықтық@@
қаяз@@
қи@@
Қи@@
қимыл
қимыл@@
қинал@@
қира@@
қират@@
қисы@@
қисын@@
қиы@@
Қиы@@
қиын@@
қиында@@
қиындат@@
қиындығ@@
қиындық@@
қиыншылық@@
қия@@
қиял
қиял@@
ҚК
ҚҚС
ҚҚС-@@
қо@@
Қо@@
Қобыла@@
қоға@@
Қоға@@
қоғам
қоғам@@
Қоғам@@
ҚОҒАМ
қоғамда@@
қоғамдастығ@@
қоғамдастық@@
ҚОҒАМДЫҚ
қоғамдық-саяси
ҚОҒАМДЫҚ-САЯСИ
ҚОҒАМЫНЫҢ
Қож@@
Қожабер@@
қожайын@@
қожалығ@@
ҚОЖАЛЫҒЫНЫҢ
қожалық@@
ҚОЖАХМЕТОВ
қожыра@@
қоз@@
Қоз@@
қозға@@
қозғал@@
қозғалтқыш
қозғалтқыш@@
қозғалы@@
қозғалыс
қозғалыс@@
қозғауш@@
қоздыр@@
қой
қой@@
Қой@@
қойм@@
қойма@@
қоймас
қойна@@
қойыл@@
Қойыл@@
қойылым@@
қол
қол@@
Қол
Қол@@
қола@@
қолай@@
қолайл@@
Қолайл@@
қоласт@@
қолбасшы@@
қолда@@
қолдама@@
қолдан@@
қолданба@@
қолданбал@@
Қолданбал@@
қолдану@@
қолдануш@@
қолданушы@@
Қолданушы@@
қолданы@@
қолданыл@@
қолданылма@@
қолданыс
қолданыс@@
қолдау@@
ҚОЛДАУ
қолдаушы@@
қолжазба@@
ҚОЛЖАЗБАЛАР
қолжет@@
Қолжет@@
қолжетімділіг@@
қолжетімділік@@
қолма-қол
Қолма-қол
қолөн@@
ҚОЛӨНЕР
қолтығ@@
қомақ@@
қон@@
ҚОНАҒЫ
қонақ
қонақ@@
Қонақ
Қонақ@@
қонақү@@
қонақүй@@
қондыр@@
қондырғ@@
қондырғы@@
қоныс
қоныс@@
қоныстан@@
қоңы@@
Қоңы@@
қоңыз@@
қоңыра@@
қоңырау@@
қор@@
Қор@@
ҚОР
қорға@@
Қорға@@
қорғал@@
Қорғалж@@
қорған@@
қорғаны@@
қорғаныс
қорғаныс@@
Қорғаныс
ҚОРҒАНЫС
қорғаныш
Қорғас
ҚОРҒАС
Қорғас-Шығыс
қорғау@@
ҚОРҒАУ
қорғауш@@
қорғаушы@@
Қорда@@
қорқ@@
қорқы@@
қорқыныш
қорқыныш@@
Қорқыныш
қорқыт@@
Қорқыт
қорла@@
қорша@@
Қорша@@
қоршау@@
Қоры@@
ҚОРЫ
қорығ@@
ҚОРЫҒЫ
қорық@@
Қорық
ҚОРЫНЫҢ
қорыт@@
қорытпа@@
қорытынды@@
қорытындыла@@
қос
қос@@
Қос
қоса
қосалқ@@
Қосарл@@
қосарлан@@
қосаяқ
қосмекенді@@
қосп@@
қоспа@@
қоспаға@@
Қостана@@
Қостанай@@
ҚОСТАНАЙ
қосу@@
қосыл@@
қосылу@@
қосылыс@@
қосымш@@
Қосымш@@
қосымша@@
қосынды@@
қош
қою
қою@@
ҚОЮШЫ
қоя
қоя@@
қоян
қоят@@
қоятын@@
ҚР
ҚР-@@
ҚР-ДАҒЫ
ҚСЗИ
қу@@
қуа@@
қуан@@
ҚУАНДЫҚ
қуант@@
қуантарлық
қуаныш
қуаныш@@
қуанышт@@
қуат
қуат@@
Қуат
ҚУАТ
қуатта@@
қуаттылығ@@
қудала@@
қунақ
қусыр@@
қуы@@
құ@@
Құ@@
ҚҰБ
құбы@@
Құбы@@
құбыжық
құбыл@@
құбылмал@@
құбылмалылығ@@
құбылмалылық@@
құбылу@@
құбылы@@
құбылыс
құбылыс@@
құбыр@@
ҚҰБЫРЫ
Құда@@
құдай
құдай@@
Құдай@@
ҚҰДАЙБЕРГЕН
ҚҰДАЙБЕРГЕНОВ
Құдайбердіұл@@
құжа@@
Құжа@@
құжат
құжат@@
Құжат
Құжат@@
ҚҰЖАТТАМА
Құз
құй@@
Құй@@
құйрық@@
Құйрық@@
құйыл@@
құқ@@
құқығ@@
құқық
құқық@@
Құқық
Құқық@@
ҚҰҚЫҚ
құл@@
Құл@@
құла@@
құлақ
құлақ@@
Құлақ@@
құлама@@
құлат@@
құлдық@@
құлдыр@@
құлдыра@@
құлдырау@@
құлқ@@
Құл-Мұхаммед
ҚҰЛ-МҰХАММЕД
құлшын@@
құлшыны@@
құлшыныс
құлшыныс@@
Құлыбаев
құлық
құлық@@
құм@@
құмай@@
Құман
құмарлық
құмдауық
құн
құн@@
Құн
Құнанбаев
Құнанбаев@@
Құнанбайұл@@
құнарл@@
құндылығ@@
құндылық
құндылық@@
құнсыздан@@
құнсыздандыр@@
құпия
құпия@@
Құпия
құпта@@
құптарлық
құр
құр@@
Құр@@
құра@@
Құра@@
құрал
құрал@@
Құрал@@
құрала@@
ҚҰРАЛАЙ
құрал-жабдық@@
құрал-сайман@@
құрам
құрам@@
құрама@@
құрамдас
Құран
құрастыр@@
құрастырушы@@
құрастырыл@@
құрба@@
құрбан@@
Құрбан
құрбандық@@
құрғақ
Құрғақ
құрдым@@
құрқылта@@
құрлығ@@
құрлық@@
Құрлық
Құрлық@@
құрлықаралық
Құрманғаз@@
ҚҰРМАНҒАЗЫ
ҚҰРМАНОВ
құрме@@
Құрме@@
құрмет
құрмет@@
Құрмет
құрметте@@
ҚҰРМЕТТІ
құрт@@
құртқашаш@@
құру@@
ҚҰРУ
құрығ@@
Құрық
ҚҰРЫҚ
құрыл@@
Құрыл@@
құрылғ@@
құрылғы@@
Құрылта@@
құрылтай@@
құрылу@@
құрылы@@
құрылым@@
Құрылым@@
құрылымда@@
құрылыс
құрылыс@@
Құрылыс
ҚҰРЫЛЫС
құс
құс@@
Құс
Құс@@
ҚҰСАЙЫНОВА
құсбегі@@
ҚҰСБЕГІ
Құтан@@
құтқ@@
құтқар@@
құттықта@@
құтыл@@
құш@@
құшағ@@
құштарлық
құю
құю@@
ҚХА
ҚХР
ҚХР-@@
қы@@
Қы@@
Қыдырәл@@
ҚЫДЫРӘЛІ
қыз
қыз@@
Қыз
Қыз@@
қызанақ
қызғалдақ@@
Қызғалдақ
Қызғылт
қызм@@
қызме@@
қызмет
қызмет@@
Қызмет
ҚЫЗМЕТ
ҚЫЗМЕТІНІҢ
қызметк@@
қызметкер@@
ҚЫЗМЕТКЕРІ
қызығ@@
қызығушылығ@@
қызығушылық
қызығушылық@@
қызық
қызық@@
қызықтыр@@
қызыл
Қызыл
Қызылж@@
Қызылжемсаул@@
қызылқұйрық
Қызылқұйрық
Қызыло@@
ҚЫЗЫЛОРДА
қыл
қыл@@
Қыл@@
Қыла@@
қылқала@@
қылм@@
Қылм@@
қылмы@@
қылмыс
қылмыс@@
Қылмыс
қылмыскер@@
қылық@@
қылыш
қылыш@@
қым
қымбат
қымбат@@
қымбатта@@
қымбаттат@@
Қымыз@@
Қынагүл
қыпшақ
қыпшақ@@
Қыпшақ
Қыпшақ@@
қыр@@
Қыр@@
қыра@@
қыран
Қыран
Қырғауыл@@
Қырғи
қырғиқа@@
Қырғиқа@@
қырғыз@@
Қырғыз@@
ҚЫРҒЫЗ
Қырғызс@@
Қырғызста@@
Қырғызстан@@
ҚЫРҒЫЗСТАН
ҚЫРҒЫЗСТАННЫҢ
қыркүйег@@
қыркүйек
қыркүйек@@
Қыркүйек
Қыркүйек@@
қырқылдақ
қырқылдақ@@
қыр-сыр@@
Қырыққабат
Қырым@@
қырып-жою
қырып-жоят@@
қыс
қыс@@
Қыс
Қыс@@
қысқ@@
Қысқ@@
қысқамерзім@@
қысқаметраж@@
қысқар@@
қысқарт@@
қысқарту@@
қысқартыл@@
қысқаш@@
Қысқаш@@
қысы
қысыл@@
қысым@@
қыта@@
Қыта@@
қытай@@
Қытай@@
ҚЫТАЙ
ҚЫТАЙДАҒЫ
Қытайдік@@
ҚЫТАЙДЫҢ
қытайлық
Қытайлық
қыш
қыш@@
Қыш@@
қышқыл
қышқыл@@
л@@
Л
ла
ла@@
Ла
Ла@@
Лабри
Лав@@
Лагард
Лагранж
Ладло@@
лаз@@
Лай@@
Лайман
Лайн
лайық@@
лайықта@@
лайықтал@@
Ла-Корунья
лақтыр@@
Лал@@
Лам@@
Ламб@@
Лан
Лан@@
Ланд@@
Ланди
Ландсберг
ландшаф@@
ландшафт@@
Ланкастэ@@
Ланс
лаңке@@
лаңкестік@@
Лаңкестік@@
Лаос
Лаплас
Лаптев
лар
лар@@
Лар@@
ЛАРИСА
Ларр@@
Ларри
лас
Лас
Ла-Саль
Лас-Вегас
Лас-Вегас@@
ЛАСЕ
Ласло
Ласси
Лассин@@
ласта@@
ластан@@
лат@@
Лат@@
Латвия
Латвия@@
ЛАТВИЯ
ЛАТВИЯНЫҢ
Ла-Трини@@
латын@@
Латын@@
ЛАТЫН
латынамерикалық
Латынш@@
Латыш
лауаз@@
лауазым@@
лауреа@@
лауреат@@
ЛАУРЕАТЫ
Лаурэл
Лаурэнс
Лауэлл
Лафайэтт
Лацио
Ла-Шапель-д
ләззат
ЛӘЗЗАТ
ЛӘЙЛӘ
ЛГБТ
Л.ГУМИЛЕВ
Ле
Ле@@
Лебанон
Лебедев
Лев
Леви
Левистон
легитимділіг@@
Лез@@
Лейбори@@
лейборис@@
Лейл@@
ЛЕЙЛА
Лейпциг
Лек
Лексингтон
Ле-Лор@@
Леман
Леман@@
Лемь@@
Лен@@
Лени@@
Ленин
Ленин@@
Ленинград
Леннокс
Леннон
Лео
Леон
Леон@@
Леонард
Леонардо
Леонид
Леонидович
Леопольд
Леп@@
Ле-Пен
лер
лер@@
Леро@@
Лес@@
Лесото
Лех
ли@@
Ли
Ли@@
ЛИ
Лиа@@
Либена@@
либера@@
либерал
либерал@@
либералдандыр@@
либерал-демократия@@
либерал-демократиялық
либерализ@@
Либерия
Либертадорес
Либерти
Лива@@
Ливан
Ливан@@
Ливерпуль
Ливингстон
Ливия
Лиг@@
лига@@
Лига@@
лидер@@
Лидия
Лиз@@
Лили
Лимон
Лимф@@
Лин
Лин@@
лингвистик@@
Лингвистик@@
лингвистикалық
Лингвистикалық
Линд
Линдон
Линкольн
Линн
Линь
Линьероль
Лион
Лионс
лира@@
Лис
Лисбон
Лисец
Лиссабон
листинг
лит@@
Литв@@
Литва@@
ЛИТВА
ЛИТВАНЫҢ
Литтл
Литтлтон
Литчфилд
Лихтенштейн
Л.Н
Ло
Ло@@
лобби@@
лоббис@@
Логан
Логарифм@@
логик@@
Логик@@
логика@@
логикалық
Логикалық
логистик@@
логистика@@
ЛОГИСТИКА
логистикалық
Лодж
Лоз@@
локомотив
локомотив@@
Локомотив
Лон
Лон@@
Лонг
Лонгвиль
Лондо@@
Лондон
Лондон@@
ЛОНДОН
Лонша@@
Лопес
Лор@@
Лоран
Лорд@@
Лорен
Лоренц
Лоренцо
ЛОРО
Лос
Лос-Анджелес@@
Лоу@@
Лоун
Лоуренс
Лу@@
ЛУ
Луар@@
Лувиньи
Луго
Луи
Луиджи
Луис
Лук@@
Лукас
Лун
Лун@@
лық
Львов
Львович
Льеж
Льюис
Лэ
Лэйк
Лэйквуд
Лэйкс
Лэйксайд
Лэйн
Лэйсу@@
Лю
Лю@@
ЛЮ
Люб@@
Людвиг
Людмил@@
ЛЮДМИЛА
Людовик
Люк
ЛЮК
Люкс
Люксембург
Люксембург@@
Люляково
Люнебург
Люси
Ляньюньган
м
м@@
М
ма
ма@@
Ма
Ма@@
МА
Маврики@@
Мавритания
Маг@@
МАГАТЭ
МАГАТЭ-@@
Магеллан
магист@@
магистрал@@
магистраль@@
магистрант@@
магистратур@@
Магни@@
Магнит
Магноли@@
мағ@@
маған
Мағжан
мағлұмат
мағлұмат@@
мағына@@
мағынал@@
Мада@@
Мадагаск@@
мадақта@@
Мадален@@
МАДИНА
МАДИЯР
Мадлен
Мадрид
МАЕМИРОВ
Мажарс@@
Мажарста@@
МАЖАРСТАН
маз@@
Мазероль
мазмұ@@
мазмұн@@
мазһаб@@
май
май@@
Май@@
Майами
майдан@@
Майенн
Майк
Майкл
Майл@@
маймыл@@
Майн
Майн@@
Майр@@
майталман@@
Майя
Мак
Макао
Макаров
Макдональд
Македония
Македония@@
Макиавелли
Маккарти
Маккензи
Маклин
Мако
Макри
Макро@@
Макрон
Макрон@@
макроэкономика@@
МАКРОЭКОНОМИКА
макроэкономикалық
Макроэкономикалық
Макс
Максвелл
Макси@@
МАКСИМ
максима@@
Максимович
максимум@@
мақ
мақ@@
Мақ@@
мақал@@
Мақал@@
мақала@@
Мақала@@
МАҚАШЕВ
Мақпал
мақс@@
мақса@@
мақсат
мақсат@@
Мақсат
МАҚСАТ
МАҚСҰТ
мақта@@
мақтан@@
мақтаныш
мақтаныш@@
мақұл@@
мақұлда@@
мақұлдау@@
мал
мал@@
Мал
Мал@@
мала@@
Мала@@
Малави
Малаг@@
малай@@
Малайзия
Малайзия@@
Мали
Малкович
Малкол@@
Маль@@
Мальта@@
мам@@
Мам@@
мама@@
маман
маман@@
Маман@@
мамандан@@
мамандандырыл@@
маманды@@
мамандығ@@
мамандық@@
Мамандық@@
МАМАНЫ
Мамин
МАМИН
мамы@@
Мамы@@
мамыр@@
Ман
Ман@@
Манас
Манг@@
Мандел@@
манипулято@@
манипуляция
манипуляция@@
манипуляцияла@@
манифе@@
манифест
Манифест
Мано@@
Манон
Мансфилд
Мануэль
Манхэт@@
Манчес@@
Манчэс@@
Манш
Мань@@
маң@@
маңай@@
Маңғыста@@
Маңғыстау@@
МАҢҒЫСТАУ
маңыз@@
маңызды@@
маңыздылығ@@
Маңыздылығ@@
маңыздырақ
Мар@@
Мара@@
марап@@
марапа@@
марапат
марапат@@
марапатта@@
Марапатта@@
марапаттал@@
Марат
МАРАТ
Маратұл@@
марафоншы@@
Марбл
Маргарет
Маргари@@
маргиналдан@@
Марғұлан
МАРҒҰЛАН
мард@@
маржан
Маржан
МАРЖАН
Мари
Мари@@
Мариан@@
Марин
Марин@@
МАРИНА
Марио
Марион
Мариэт@@
Мария
МАРИЯ
Марк
Марк@@
марка@@
маркал@@
Маркет
маркетинг
Маркетинг
МАРКЕТИНГ
Марко
Маркос
Маркс
Марксиз@@
Маркус
Марлборо
Марли
Марло@@
Марн@@
Марокко
Марс
Марсель
Марсен@@
Марсии
Мартин
Мартинес
Мартиник@@
Мартинс
Мартинсбург
МАРТИНЭ
Марчелло
марш@@
Марш
Маршал
Маршалл
маршру@@
маршрут@@
Маршфилд
мас@@
Мас@@
маса@@
Маскегон
Масло@@
масса@@
Масса@@
Массачусетс
Масси
масштаб@@
мата@@
матас@@
Матве@@
Матвеев
Матвеевич
математик@@
Математик@@
математика@@
математикалық
Математикалық
материа@@
Материа@@
материал
материал@@
Материал@@
Материализ@@
материя
Матиас
Матриц@@
Маттарелл@@
Маттео
Маттиас
МАТТИАС
Маттис
Мату@@
матч@@
Мау@@
Маунд
Маунт
Маунтэйн
Маур@@
маус@@
Маус@@
маусым@@
мафия
мафия-мемлекет@@
махаббат
махаббат@@
Махаббат
Махамбет
Махатхи@@
Махмуд
Махмұд
Мачадо
машин@@
Машин@@
машина@@
Машина@@
Машиналық
маэстро
мә@@
мәдени
мәдени@@
Мәдени
МӘДЕНИ
мәдени-гуманитарлық
мәдение@@
мәдениет
мәдениет@@
Мәдениет
МӘДЕНИЕТ
МӘДЕНИЕТІ
МӘДИЕВ
МӘДИНА
мәжбү@@
мәжбүрл@@
мәжбүрле@@
Мәжілі@@
МӘЖІЛІСІНІҢ
мәл@@
Мәлик
мәлім@@
мәлімде@@
мәлімдеме@@
мәліме@@
мәлімет
мәлімет@@
Мәлімет@@
мәліметінш@@
мәміл@@
мәміле@@
Мәмлүк@@
мән
мән@@
Мән
мәнер@@
Мәнерле@@
мәні@@
Мәншүк
мәңгі@@
Мәңгілік
мәр@@
мәре@@
Мәрмә@@
мәрте@@
мәртебе
мәртебе@@
мәртебел@@
мәсе@@
мәсел@@
Мәсел@@
мәселе@@
Мәселе@@
МӘСЕЛЕЛЕР
МӘСЕЛЕЛЕРІ
мәселен
Мәселен
Мәске@@
Мәскеу@@
МӘСКЕУ
мәт@@
Мәт@@
мәтін@@
МӘУЛЕН
МВт
ме
ме@@
Ме@@
мегава@@
мегаватт
Меган
мегаполис@@
медал@@
медаль
медаль@@
Медведев@@
Медет
МЕДЕТ
меди@@
Меди@@
медиа@@
МЕДИА
медик@@
Медин@@
медицин@@
Медицин@@
медицина@@
Медицина@@
МЕДИЦИНА
медициналық
Медициналық
Медичи
меже@@
межелен@@
Мез
Мез@@
мезгіл@@
мезет@@
Мезозо@@
Мезон
Мезь@@
Мей@@
МЕЙІРЖАН
мейлінш@@
мейман@@
Мейр@@
мейрам
мейрам@@
МЕЙРАМГҮЛ
мейрамхана@@
мек
мек@@
Мек@@
меке@@
мекеме@@
мекен@@
Мекленбург
Мекленбург-Алдыңғ@@
Мексик@@
Мексика@@
мекте@@
Мекте@@
мектеб@@
МЕКТЕБІНІҢ
мектеп@@
Мектеп@@
МЕКТЕП
Мел@@
Мелвилл
Мелин@@
Мелис@@
Мельбурн
мемлек@@
мемлеке@@
Мемлеке@@
мемлекет
мемлекет@@
Мемлекет
Мемлекет@@
МЕМЛЕКЕТ
мемлекетаралық
Мемлекетаралық
МЕМЛЕКЕТІНІҢ
МЕМЛЕКЕТТЕРІНДЕГІ
МЕМЛЕКЕТТІК
мемлекеттік-же@@
мемлекеттік-жекеменшік
меморанду@@
Меморанду@@
меморандум@@
мемориа@@
МЕМОРИАЛДЫ
Мемфис
мен
мен@@
Мен
Мен@@
МЕН
Мён
менедж@@
менеджер@@
МЕНЕДЖЕРІ
менеджмен@@
менеджмент
менеджмент@@
Менеджмент
менік@@
менің
меніңш@@
Меніңш@@
меншіг@@
меншік
меншік@@
Меншік
Меншік@@
меңгер@@
МЕҢГЕРУШІСІ
меңзе@@
Меңіре@@
мер@@
Мер@@
мердігер@@
Мердок
мере@@
Мере@@
Меревиль
мерейто@@
мерейтой@@
мереке@@
мерекелік
мерз@@
мерзім@@
Мери@@
Меридиан
Меринг
Мерк@@
Меркель
Меркель@@
Мес@@
Мессин@@
мет@@
Мет@@
метал
метал@@
Метал@@
металл
металлургия
металлургиялық
метраж@@
метрлік
метро@@
Метро
Меттман
механиз@@
механизм@@
механик@@
механика@@
Механикалық
меші@@
мешіт
мешіт@@
ми
ми@@
Ми
Ми@@
Мигель
мигрант@@
миграция
миграция@@
Миграция
Миграция@@
Мид
Миддл
Миддлтаун
Миддлтоун
Мидо@@
Мийо
микрокредит
Микронезия
Мил@@
Милан
Милан@@
МИЛАН
Милл
Милл@@
Миллвилл
Миллениу@@
миллиард
миллиард@@
миллиардер@@
миллиардта@@
миллио@@
миллион
миллион@@
миллионда@@
Миллс
Милль
Мило
Милтон
Милфорд
Мильтенберг
Мин
Мин@@
мина@@
Миндэн
Минейро
минера@@
минерал@@
минима@@
минист@@
Минист@@
министр@@
Министр@@
МИНИСТРІ
МИНИСТРІНІҢ
министрліг@@
МИНИСТРЛІГІ
МИНИСТРЛІГІНІҢ
министрлік
министрлік@@
Министрлік@@
Мини-футбол@@
Миннесо@@
Мино@@
Минск
Минскі@@
мину@@
минус
минут
минут@@
Мир@@
Миран@@
Мирз@@
Мирзиеев
Мирзиёев
Мирослав
МИРОСЛАВ
Миртл
Мисбах
Миссисипи
миссия@@
Миссури
Мистраль
Митч
Митчелл
мифология@@
Михаил
МИХАИЛ
Михайлович
Михайловн@@
Михаэль
МИХАЭЛЬ
Мичиган
мишель@@
Мишель
міз
міз@@
мін
мін@@
Мін@@
мінд@@
мінде@@
Мінде@@
міндет
міндет@@
МІНДЕТІН
міндетте@@
міндеттеме@@
міне
мінез-құлқ@@
мінез-құлық@@
міңгірлек
млн
млн-@@
млн.
млрд
млрд-@@
млрд.
МНР
МНР-@@
мо@@
Мо
Мо@@
мобиль@@
Мобиль@@
МОГИЛАТОВ
Могилев
модел@@
модель
модель@@
модельде@@
Модерниз@@
модернизация@@
модернизацияла@@
Моди
Моди@@
модификациялан@@
модул@@
модуляция
Мозамбик
Мозель
Мозес
Моисеевич
мойн@@
мойын@@
мойында@@
мойындал@@
мойындама@@
Мойынқұ@@
мол
мол@@
молайт@@
Молдавия
Молдов@@
Молдова@@
Молекулалық
молшылық
Моль
Моль@@
Мон
Мон@@
Монако
монарх@@
монархия@@
Монгая@@
Монғолия
монета@@
монетариз@@
монетарлық
мониторинг
Монк@@
Монмаус
монография
монополи@@
монополис@@
монополия
монополия@@
монополиялық
Монополиялық
Монпезат
Монреаль
Монро
Монро@@
Монсегю@@
Монсон
Монтан@@
Монтгомэри
Монтескь@@
Монтикэлло
Монтиньи
Монто
Монтроус
Монфокон
Монц@@
Монша@@
моңғол@@
Моңғол
Моңғолия
Моңғолия@@
Мор@@
мораль@@
Мораль
моратори@@
Морбиан
Морган
Мордовия
Морен@@
Мори
Морис
Мориц
Морл@@
Морлэ@@
Моррис
Моррисон
Морфология
Мос@@
Мост
мото@@
МОХАММАД
Моцар@@
мөлш@@
мөлшер@@
мөлшерле@@
мөлшерлеме@@
МСМ
МССБ
Му
Му@@
музе@@
музей@@
Музей@@
МУЗЕЙ
МУЗЕЙІ
МУЗЕЙІНІҢ
музык@@
Музык@@
музыка@@
Музыка@@
музыкалық
Музыкалық
музыкант
музыкант@@
Музыкант@@
МУЗЫКАНТ
музыкатанушы@@
МУКАРАМ
мультимедиялық
мультфиль@@
мультфильм@@
Мумия
Мун
Мун@@
Мунду-Нов@@
МУНИРА
муниципа@@
муниципалитет@@
Мур@@
Муромец
Муррэ@@
Мус@@
Мусли@@
Муссолини@@
Муть@@
мүг@@
мүд@@
мүдде@@
мүддел@@
мүдделілік
мүйі@@
Мүйіз@@
мүл@@
мүлде@@
мүлік
мүлік@@
Мүлік
мүлк@@
мүмк@@
Мүмк@@
мүмкін
мүмкінді@@
мүмкіндіг@@
мүмкіндігінш@@
мүмкіндік@@
мүсі@@
мүсін
мүсін@@
мүсінші@@
МҮСІНШІ
Мүш@@
мүше
мүше@@
мүшеліг@@
мүшелік
мүшелік@@
МҮШЕСІ
мұ@@
Мұ@@
мұғал@@
мұғалім@@
МҰҒАЛІМІ
мұз
мұз@@
Мұз
Мұз@@
мұздатыл@@
мұқият
мұқтаж
МҰҚЫШБАЕВА
мұн@@
Мұн@@
мұна@@
Мұна@@
мұнай@@
МҰНАЙ
мұнай-газ
мұнай-химия
мұнара@@
Мұнда@@
мұндай
мұны
мұны@@
МҰҢАЛБАЕВА
мұр@@
Мұр@@
мұра
мұра@@
мұраг@@
мұраға@@
мұрағат@@
Мұрағат
МҰРАҒАТ
МҰРАҒАТЫНЫҢ
мұража@@
Мұража@@
мұражай@@
Мұражай@@
МҰРАЖАЙ
МҰРАЖАЙЫНЫҢ
МҰРАЛАРДЫ
Мұрат
МҰРАТ
Мұсақожаев@@
МҰСАҚОЖАЕВА
Мұстаф@@
Мұстафин
мұсылман
мұсылман@@
Мұсылман
Мұх@@
МҰХАМЕДЖАНОВ
МҰХАМЕДИҰЛЫ
Мұхаммад
МҰХАММАД
Мұхаммед
МҰХАММЕД
мұхи@@
мұхит
мұхит@@
Мұхит
Мұхит@@
Мұхитдинов
МҰХИТДИНОВ
МҰХТАР
Мхитарян
мы@@
Мы@@
мыз
мыз@@
мық@@
Мық@@
мықта@@
мықтылығ@@
мықтырақ
мылтық@@
мын
Мын@@
мына
мына@@
Мына@@
мынада@@
мынау
мың
мың@@
мыңда@@
мыңж@@
Мыңж@@
мырз@@
Мырз@@
мырза@@
МЫРЗАЛИЕВ
Мырыш
мыс
мыс@@
Мыс
мысал
мысал@@
Мысал@@
Мысы@@
мысығ@@
Мьян@@
Мьянма@@
мэ@@
Мэ@@
Мэгги
Мэдисон
Мэдфорд
Мэй@@
Мэйнард
Мэйпл
Мэлроус
Мэн
Мэндон
Мэнсфилд
Мэри
Мэриленд
Мэрисвилл
МЭРІ
Мэррилл
Мэтт
Мэттью
Мэтью
мюзикл@@
Мюл@@
Мюльдорф
Мюльхаузен
Мюнс@@
Мюнхен
МЮНХЕН
Мюрре@@
-н@@
н@@
Н
на
на@@
На@@
Нав
Навальны@@
Навальный@@
Навас
навигация
навигациялық
Навигациялық
Нагоя
Надеж@@
Наджиб
наз@@
Наз@@
назар@@
Назарбаев
Назарбаев@@
НАЗАРБАЕВ
НАЗАРОВ
НАЗГҮЛ
Найза@@
нақ@@
Нақ@@
нақтыла@@
нақтылан@@
нақтырақ
Нақтырақ
НАҚЫСПЕКОВ
нақыш@@
Налес
намаз
намаз@@
Намибия
намы@@
-нан
нан
нан@@
Нан
Нан@@
наным@@
Наньнин
Наполеон
Нар@@
нараз@@
наразылығ@@
наразылық
наразылық@@
Нарендр@@
нарығ@@
нарық
нарық@@
Нарық
Нарық@@
нарықтар@@
нарықтық-фундаментали@@
Нас@@
насихатта@@
Насы@@
Насьонал
Наталия
Наталья
НАТАЛЬЯ
нативи@@
НАТО
НАТО-@@
Натри@@
нау@@
Науаи
Науаи@@
науқас@@
Наур@@
наурыз
наурыз@@
Наурыз
Наурыз@@
НАФТА
НАФТА-@@
наци@@
нациз@@
национали@@
национализ@@
нацис@@
нашар
нашарла@@
нашарлат@@
Нашу@@
нәзік
нәрсе
нәрсе@@
нәс@@
нәсіл@@
нәсілш@@
нәтиж@@
нәтиже
нәтиже@@
Нәтиже@@
нәтижел@@
нәтижеліліг@@
Нгуен
не
не@@
Не
Не@@
Неаполь
неб@@
небә@@
Небраск@@
Нев@@
Нева@@
Невада-Семе@@
Невестино
Невиль
Невски@@
негіз@@
Негіз@@
негізг@@
Негізг@@
негізде@@
негіздел@@
негізделме@@
НЕГІЗІН
неғұрл@@
Неғұрл@@
Нейман
неке@@
нелік@@
Нельсон
нем@@
неме@@
Неме@@
неміс
неміс@@
Неміс
Неміс@@
НЕМІС
немқұрайл@@
нен
Непал
Нептун
Нер@@
Нес@@
неси@@
Неси@@
несие@@
НЕСИЕ
несиеле@@
несиелендір@@
несиелеу@@
несиелік
Несиелік
НЗМ
ни@@
Ни@@
Ниг@@
Нигерия
Нидерла@@
Нидерланд
Нидерланд@@
Нидерланды@@
ние@@
ниет
ниет@@
ниетт@@
ниеттен@@
ниеттестік@@
ниетті@@
НИЗАМИ
Никарагу@@
Никель
Ники@@
Никол@@
Никола@@
Николаевич
Николаевн@@
НИКОЛАЙ
Николас
Николь
Николя
Никсон
Нил
Нильс
Нильсен
Нин
Нинбург
Нис@@
Ниу@@
Ниэндорф
Ниязбеков
ні
Ніл
нің
но@@
Но
Но@@
Нобель
Нова-Олин@@
Новгород
Новосібі@@
Нойвид
Нойендорф
Нойенкирхен
Нойкирхен
Ноймаркт
Нойндорф
Нойнкирхен
Ной-Уль@@
Нойхофен
Нойштадт
Нол@@
номина@@
номинация@@
Нон@@
нор@@
Нор@@
Норвегия
Норвегия@@
норвегиялық
Норвуд
Норвэ@@
Нордхаузен
норма@@
Норман
норматив@@
нормативтік-құқық@@
Норрис
Норс
Норсвуд
Норсфилд
Нортхай@@
Норфолк
нота@@
нотация
Нотр-Дам-д
ноу-ха@@
ноу-хау@@
нө@@
нөл@@
нөмір@@
нөпі@@
Нуа@@
Нуклеин
нүк@@
нүкте@@
Нұ@@
нұқсан
Нұр@@
НҰР
НҰРАЛЫ
НҰРБЕК
Нұрбол
НҰРБОЛ
НҰРБОЛАТ
Нұржан
НҰРЖАН
Нұрл@@
Нұрлан
НҰРЛАН
Нұрпейісов@@
Нұрсұл@@
НҰРСҰЛТАН
Нұрсұлтанқыз@@
НҰРЫШЕВ
нұсқа@@
нұсқаулығ@@
ны
нығай@@
нығайт@@
нығайту@@
нығаю@@
нығая
Нығматулин
нық
ның
ныса@@
нысан
нысан@@
Нысан@@
нысана@@
нысанал@@
ныша@@
Ньев@@
Нью
Ньюарк
Нью-Джерси
Нью-Йорк
Нью-Йорк@@
НЬЮ-ЙОРК
НЬЮ-ЙОРКТЕГІ
Ньюкасл
Ньюкастл
Нью-Мексико
Ньюпорт
Ньютон
НЬЮ-ХЕЙВЕН
Нэлсон
Нюрнберг
ң
ң@@
ңіз
ңіз@@
ңыз
ңыз@@
о
О
ОА
Оак
Оаквуд
Оакланд
Оаклэнд
Оакс
ОАР
Об
Об@@
ОБ
ОБ-@@
оба@@
Оба@@
Обама@@
Обервиль
Обердорф
Оберхаузен
обл@@
Обл@@
облигация
облигация@@
облы@@
облыс
облыс@@
Облыс
ОБЛЫС
ОБЛЫСТЫҚ
ОБЛЫСЫ
ОБЛЫСЫНЫҢ
Обрадо@@
образ@@
обсерватория@@
объектив@@
объекті@@
Ов@@
Ог@@
Огайо
огл@@
Огюс@@
Огюст
оған
Оған
оғл@@
Оғыз
Од
одағ@@
Одағ@@
ОДАҒЫ
ОДАҒЫНЫҢ
одақ
одақ@@
Одақ
Одақ@@
ОДАҚ
одақта@@
одақтас
одақтас@@
одан
Одан
Одес@@
О-де-Сен
оз@@
Озон
озық
Озық
ой
ой@@
Ой@@
ойл@@
ойла@@
ойлағандағыда@@
ойлама@@
ойлан@@
ойландыр@@
ойластыр@@
ойластырыл@@
ойлау@@
ойн@@
ойна@@
ойпа@@
ойшыл
ойшыл@@
ойы@@
ойымш@@
ойымызш@@
ойын@@
Ойын@@
ойындар@@
ойын-сауық
ойынш@@
ойыншы@@
ойыс@@
ОК
Океания
Океания@@
округ@@
ОКРУГІНІҢ
окси@@
Оксфорд
ОКСФОРД
Оку@@
оқ
оқ@@
Оқ
Оқ@@
оқи
оқи@@
оқиға
оқиға@@
оқит@@
ОҚО
оқу@@
оқу-әдістемелік
оқулық
оқулық@@
оқуш@@
оқушы@@
Оқушы@@
ОҚУШЫ
ОҚУШЫСЫ
оқша@@
оқшаула@@
оқшаулан@@
оқы@@
оқылма@@
оқырман
оқырман@@
оқыт@@
оқыту@@
оқытушы@@
ОҚЫТУШЫСЫ
ол
ол@@
Ол
Ол@@
ола@@
Ола@@
олар
оларға
олардан
олардың
олармен
Олбани
Олд
Олег
ОЛЕГ
Олегович
олж@@
Олжас
ОЛЖАС
Олив
Олив@@
Оливейр@@
Оливия
Оливь@@
олигарх@@
олимпиа@@
Олимпиа@@
олимпиада@@
олимпиадалық
Олимпиадалық
Олимпик
Олимпия
Олимпиялық
олқылық
олқылық@@
Олланд
Олсен
Ольг@@
ОЛЬГА
Ольденбург
Олью-д
Олэн
Ом
Ом@@
Оман
Омар@@
ОМАР
ОМАРОВ
ОМАРОВА
Омб@@
ОМБЫ
ОМО
Омырт@@
он
он@@
Он
Он@@
онда
онда@@
Онда@@
онж@@
онжылдығ@@
онжылдық@@
онлайн
онлайн@@
Онлайн
Онор@@
Онтарио
онш@@
онымен
оның
оң
оң@@
Оң
оңа@@
оңайлат@@
оңайырақ
оңал@@
оңтайл@@
оңтайландыр@@
оңтайландырыл@@
оңтү@@
Оңтү@@
оңтүстіг@@
оңтүстік@@
ОҢТҮСТІК
Оңтүстік-Батыс
оңтүстіккореялық
Оңтүстіккореялық
Оңтүстік-Қазақс@@
Оңтүстік-шығыс
Оңтүстік-Шығыс
оңшыл
оңшыл@@
Оңшыл
Оонипроб
Оонипроб@@
опер@@
Опер@@
опера@@
Опера@@
ОПЕРА
операто@@
оператор@@
Оператор@@
ОПЕРАТОР
операция
операция@@
Операция
операциялық
Операциялық
оп-оңа@@
оппозиция
оппозиция@@
оппозициялық
оптик@@
оптикалық
Оптикалық
оптими@@
оптимиз@@
оптимизм@@
ор@@
Ор
Ор@@
ора@@
Ора@@
орай@@
орайластырыл@@
орал@@
Орал
Орал@@
оралу@@
Оралхан
орасан
Орбан
Орбан@@
орби@@
Орвиль
орга@@
орган
орган@@
организм@@
органикалық
Органикалық
орда@@
Орда@@
орде@@
орден@@
Орегон
Орен@@
Орж@@
оркест@@
Оркест@@
оркестр@@
ОРКЕСТРІНІҢ
Орландо
орман
орман@@
Орман
Орман@@
орн@@
Орн
орна@@
орналас@@
орналастыр@@
орналастыру@@
орнат@@
орнатпа@@
орнату@@
орнатыл@@
Орнитология
орнығ@@
орнық@@
орта@@
Орта@@
ОРТА
Ортаазиялық
ортақ
Ортақ
орталығ@@
ОРТАЛЫҒЫ
ОРТАЛЫҒЫНЫҢ
орталық
орталық@@
Орталық
Орталық@@
ОРТАЛЫҚ
орталықтандырыл@@
орталықшыл
Ортаңғ@@
орташ@@
Орташ@@
орташа@@
орташыл
орташыл@@
орташыл-оңшыл
орташыл-солшыл
Орхард
орын@@
орынбас@@
ОРЫНБАСАР
ОРЫНБАСАРЫ
Орынбо@@
ОРЫНБОР
орында@@
орындал@@
орындалма@@
орындам@@
орындама@@
орындар@@
орындау@@
орындаушы@@
орыс
орыс@@
Орыс
орысш@@
Орэйндж
ос@@
Ос@@
Осак@@
осал
Осетия
Оси@@
Осипович
Оск@@
Осло
Осман
Османл@@
Оснабрюк
ОСПАНОВ
Остеро@@
Остин
Остполитик
осы
осы@@
Осы@@
Осыла@@
осылай
осылайш@@
Осылайш@@
Осында@@
осындай
осынш@@
от
от@@
От
От@@
ота@@
Ота@@
отан@@
Отан
ОТАН
отандас@@
ОТАНДЫҚ
отба@@
отбасы@@
отбасылық
Отис
Отрив
Оттав@@
Оттек@@
Отто
Оттоман
оты@@
отыз
Отыз
отын@@
отыр
отыр@@
Отыр@@
отырғандығ@@
отырғанш@@
отырғанымызда@@
отырғыз@@
отырғызу@@
отырғызыл@@
отырма@@
отыру@@
отыры@@
отырыс@@
Отырыс@@
Оулд
Оушэн
Оуэн
оф
офиц@@
офицер@@
ОФК
Оффенбах
Ош
ошағ@@
ошақ@@
оя@@
оян@@
оят@@
өз
өз@@
Өз
Өз@@
өзар@@
Өзар@@
өзбек@@
Өзбек@@
ӨЗБЕК
Өзбекс@@
өзбекста@@
Өзбекста@@
Өзбекстан@@
ӨЗБЕКСТАН
өзг@@
өзге
өзге@@
өзгер@@
өзгері@@
өзгеріс
өзгеріс@@
өзгерме@@
өзгермел@@
өзгерт@@
өзгерту@@
өзгеру@@
өзгеш@@
өздіг@@
Өздіг@@
өзе@@
өзег@@
өзек@@
Өзек@@
өзектіліг@@
өзен@@
Өзен
өзі
өзім
өзіме
өзімнің
өзімшіл
өзінде-ақ
өзіне
өзінің
өзін-өз@@
Өзін-өз@@
өзінш@@
өз-өз@@
Өйт@@
өйткені
өк@@
өкіл@@
Өкіл@@
өкілдіг@@
ӨКІЛДІГІНІҢ
өкілдік@@
ӨКІЛЕТТІ
өкілеттіг@@
өкілеттік@@
ӨКІЛІ
өкімет@@
өкін@@
өкініш@@
Өкініш@@
Өкп@@
өл@@
Өл@@
өле@@
өлең@@
өлім@@
өлке@@
өлкетан@@
өлтір@@
Өлтір@@
өлтіріл@@
өлше@@
Өлше@@
өлшем@@
өлшеу@@
өм@@
өмі@@
Өмі@@
өмір
өмір@@
өмірбаян@@
өмірлік
өмірше@@
өміршеңдіг@@
өн
өн@@
Өн@@
өнде@@
өндір@@
Өндір@@
өндірі@@
өндіріл@@
өндіріс
өндіріс@@
Өндіріс
Өндіріс@@
ӨНДІРІСТІК
өндіру@@
ӨНДІРУ
өндіруш@@
өндіруші@@
өнер@@
ӨНЕР
өнеркәс@@
Өнеркәс@@
өнеркәсі@@
өнеркәсіб@@
өнеркәсіп@@
Өнеркәсіп@@
ӨНЕРКӘСІП
ӨНЕРКӘСІПТІК
өнерпаз
өнерпаз@@
өнертабыс
ӨНЕРТАНУШЫ
өнертапқыш
өнертапқыш@@
ӨНЕРТАПҚЫШ
өнім
өнім@@
Өнім@@
өнімділіг@@
өнімділік
өнімділік@@
өң@@
өңде@@
Өңде@@
өңдел@@
Өңдел@@
өңдеу@@
ӨҢДЕУ
өңдеуш@@
өңі@@
Өңі@@
өңір@@
Өңір@@
өңіраралық
өңірлік
ӨҢІРЛІК
өр@@
Өр@@
өрескел
өрі@@
өріс
өркенде@@
өркендет@@
өркение@@
өркениет
өркениет@@
Өркениет@@
өрле@@
Өрмекш@@
өрмекші@@
Өрмекші-ада@@
өрт@@
Өрт
өрш@@
өршіл
өршіт@@
өс@@
Өс@@
өсім@@
Өсім@@
өсімдік@@
Өсімдік@@
өсіп-өркенде@@
өсір@@
өсіріл@@
өсіруші@@
Өске@@
өскеле@@
Өскемен@@
өскендіг@@
өспе@@
өсу@@
өсуі@@
өт@@
Өт
Өт@@
өте@@
өтел@@
өтема@@
өтемақ@@
Өтемақ@@
өтерліг@@
өтіл@@
өтімділіг@@
өтімділік
өтімділік@@
өтін@@
өтінім@@
өтініш
өтініш@@
өтірік
өтірік@@
өткел@@
Өткел
өткенде@@
өткі@@
өткіз@@
Өткіз@@
өткізгіш@@
өткізіл@@
өткізу@@
өтпе@@
өтпел@@
өтпес@@
ӨТТІ
өту@@
өш@@
өшір@@
өшпе@@
п
п@@
па
па@@
Па@@
Пабло
Павел
павильо@@
павильон
павильон@@
Павильон@@
ПАВИЛЬОН
ПАВИЛЬОНЫ
ПАВИЛЬОНЫНЫҢ
Павло@@
Павлов
Павлович
Павловн@@
ПАВЛОДАР
Па-де-Кал@@
пай@@
пайғамб@@
пайғамбар@@
пайда@@
пайдал@@
пайдала@@
пайдалан@@
пайдалану@@
ПАЙДАЛАНУ
Пайдалануш@@
пайдаланушы@@
пайдаланыл@@
Пайн
Пайн@@
Пайнс
Пайрс
пайыз
пайыз@@
Пайыз@@
пайызда@@
пайымда@@
пак@@
Пак
ПАК
паке@@
пакет@@
пақ
Пал@@
пала@@
Пала@@
палата@@
ПАЛАТАСЫ
ПАЛАТАСЫНЫҢ
Палеозо@@
Палермо
Палестин@@
Палестина@@
палестиндік@@
Палкевич
Палм@@
Палмир@@
Палмэ@@
паль@@
Паль
Паль@@
ПАЛЬ
пан@@
Пан
Пан@@
Пана@@
панель@@
Панора@@
Пантеон
Панфилов
Паоло
папа@@
Папу@@
пар@@
Пар@@
пара@@
Пара@@
Парагва@@
парад
Парадел@@
парадиг@@
парадигма@@
парадокс@@
парақша@@
Паралимпиа@@
параллель
параметр@@
Паран@@
парап@@
Парето
Париж
Париж@@
ПАРИЖ
Парис
парите@@
парк
парк@@
Парк
ПАРК
паркинг
парламен@@
Парламен@@
парламент
парламент@@
Парламент
Парламент@@
ПАРЛАМЕНТ
ПАРЛАМЕНТІ
ПАРЛАМЕНТІНІҢ
ПАРЛАМЕНТТІК
паро@@
паром@@
партия
партия@@
Партия
партиялық
ПАРТИЯСЫ
Пас@@
Паскаль
ПАСКАЛЬ
Пасс
Пасса@@
пассив
паста@@
патен@@
Патен@@
патент
патент@@
патентте@@
патология@@
Патологиялық
Патон
Патрик
Патш@@
патша@@
патшалығ@@
Патшалығ@@
патшалық
Патшалық
Пау-д
Паулис@@
Пауло
Пауль
Пауэ@@
Пауэлл
Пахтако@@
паш
паш@@
Пәкіс@@
Пәкістан@@
пән
пән@@
пәнаралық
пәтер@@
пе
пе@@
Пе@@
педагог@@
педагогикалық
ПЕДАГОГИКАЛЫҚ
Педр@@
Педро
пек
Пекин
Пекин@@
пен
Пен
Пен@@
Пенелоп@@
Пенс@@
Пенсильвания
Пенья
Пер@@
Перға@@
Перейр@@
Пери
Периньи
период@@
Период@@
Періш@@
Перло
перне@@
Пернетақ@@
Перр@@
Перси
перспектива@@
Перт
пессими@@
пессимиз@@
Пет@@
Пёт@@
ПЕТЕР
Петербург
Петерсберг
Петерсон
Петр@@
ПЕТР
Петров
Петрович
Петровн@@
петроглиф@@
Петропавл
пеш
пеш@@
Пи
Пи@@
пиани@@
пианист
ПИАНИСТ
Пиано
Пиз@@
Пикассо
пило@@
Пилот
Пин@@
Пиннеберг
Пир@@
пирами@@
Пирами@@
пирамида@@
Пирене@@
Пирс
Питт
Питтсбург
піз
пік@@
пікі@@
пікір@@
пікірінш@@
пікірлес
пікіртала@@
пікір-талас
пікірталас
пікірталас@@
Пікірталас@@
піл@@
пін
піс@@
пісір@@
піш@@
пла@@
Плаз@@
Плаймаус
План@@
Планалт@@
планета@@
Планк
Платин@@
Платон
платфор@@
Платфор@@
платформа@@
Плён
Плисант
Плу@@
плутократ
плутократ@@
Плутон
Плэйн
Плэйнс
Плэйнфилд
Пневматикалық
По
По@@
позиция@@
Позициялық
ПозКар@@
Пойн@@
Пойнт
пойыз
пойыз@@
Пол
ПОЛ
ПОЛЕТАЕВ
полиго@@
полигон@@
полим@@
полимер@@
Полин@@
Полинезия
политехникалық
полиция
полиция@@
Полиция
Полк
Поллинг
Поло
Полтав@@
Поль
Польш@@
Польша@@
ПОЛЬША
ПОЛЬШАНЫҢ
полюс
поляк
Поляк
Померания
Поммер@@
Пон@@
Понтеведр@@
Понтифик
Поп@@
Попов
попули@@
популиз@@
Популиз@@
популизм@@
популис@@
Популис@@
популист
популист@@
пор@@
Пор@@
порт
порт@@
Порт
портал@@
Портал
Портланд
Портсмаус
Портсмут
Португал
Португалия
Португалия@@
портфел@@
портфель@@
портфолио
ПОРТЫ
Портэйдж
пост
пост@@
посткеңе@@
посткоммуни@@
Пот@@
Потенциа@@
Потсда@@
пош@@
Пош@@
поэзия@@
Пр@@
Пра@@
Прав@@
православ
Праг@@
прагматикалық
Прай@@
практик@@
практикалық
Прато
президен@@
Президен@@
президент
президент@@
Президент
Президент@@
ПРЕЗИДЕНТ
Президент-Ел@@
ПРЕЗИДЕНТІ
ПРЕЗИДЕНТІНІҢ
президенттіг@@
президенттік@@
ПРЕЗИДИУМЫНЫҢ
ПРЕЙМАНИС
премиу@@
премь@@
Премь@@
премьера@@
Премьер-лига@@
премьер-минист@@
Премьер-минист@@
Премьер-Минист@@
премьер-министр@@
ПРЕМЬЕР-МИНИСТРІ
ПРЕМЬЕР-МИНИСТРІНІҢ
препарат@@
Престон
При@@
Приле@@
Приморь@@
Принсипи
Принстон
ПРИНСТОН
принци@@
принцип@@
пробле@@
проблема@@
проблемал@@
проблемалық
провайдер@@
Прованс
провинция@@
ПРОВИНЦИЯСЫ
Програм@@
Программа@@
Программалық
программист
прогре@@
прогрес@@
прогресс
прогрессив@@
продюс@@
продюсер@@
ПРОДЮСЕР
ПРОДЮСЕРІ
прокуро@@
прокурор@@
пропорциона@@
ПРОРЕКТОРЫ
Проспект
протекциони@@
протекциониз@@
Протекциониз@@
протекционизм@@
протестан@@
Протон
профессо@@
профессор@@
ПРОФЕССОР
ПРОФЕССОРЫ
профил@@
профилактикалық
профици@@
профицит
профицит@@
проце@@
процедура@@
процес@@
процесс
процесс@@
процессо@@
Процессо@@
Пруссия
Прэйра@@
Прэстон
Психикалық
психолог@@
психология
психология@@
Психология
психологиялық
Псков
Пуассон
публицист
ПУБЛИЦИСТ
пул@@
пунк@@
пункт
пункт@@
Пусан
Путин
Путин@@
Пуччини
Пуччини@@
Пуэбло
Пуэрто
Пуэрто-Рико
Пфаффенхофен
Пхенчхан
пыз
пын
Пь@@
Пье@@
Пьеррфитт
Пэк
Пэмбертон
Пэрри
Пюи-де-До@@
р
р@@
Р
ра@@
Ра@@
Раба@@
Равенн@@
Равна-Гор@@
Равэнн@@
радика@@
радикал
радио
радио@@
Радио
Радиоактив@@
радиоқабылдағыш@@
радиостанция@@
рай@@
Райан
Раймон
Райнсдорф
Райт
Райхенбах
Райым@@
раке@@
Ральф
Рамазан
Рамза@@
Рамирес
Рамос
Ран
Ран@@
Рандольф
Рапидс
рас
Рас
Рассел
Рассэл
раст@@
раста@@
растал@@
расталм@@
РАСУЛ
Рат@@
ратификацияла@@
РАУ
Рауан
Рауль
раунд@@
Рафаэль
Рахат-би
Рахат-Би
РАХАТ-БИ
Рахман
РАХМАН
РАХЫМБЕКОВА
рациона@@
рационал
Раш
Рашид
РАШИД
Рашфорд
рәміз@@
РӘПІЛ
рәсім@@
рәсімде@@
ре@@
Ре
Ре@@
реактив@@
Реактив@@
реакто@@
реакция
реакция@@
Реал
реализ@@
Реб@@
революционер@@
революция
революция@@
Революция
революциялық
регламент@@
регрессив@@
Ред
редакто@@
РЕДАКТОРЫ
реж@@
Реже@@
режи@@
режим@@
режисс@@
режиссер@@
РЕЖИССЕР
режиссёр@@
РЕЖИССЕРІ
Рез@@
резерв
резерв@@
Резерв
резерват@@
Резерфорд
рей@@
Рей@@
Рейган
Рейган@@
Рейн
Рейналдо
Рейн-Вестфалия
Рейнланд-Пфальц
рейс
рейс@@
рейтин@@
рейтинг
рейтинг@@
Рейтинг
рекорд
рекорд@@
Рекс
РЕКТОРЫ
Реликт
рельс@@
рен@@
Рен@@
Ренессанс
Рент@@
рента@@
Ренци
реперту@@
репортаж@@
репрессия@@
Ресе@@
Ресей@@
РЕСЕЙ
ресейлік
ресейлік@@
Ресейлік
Ресейлік@@
ресми
Ресми
РЕСМИ
республик@@
Республик@@
республика@@
Республика@@
республикалық
республикалық@@
Республикалық
Республикалық@@
РЕСПУБЛИКАЛЫҚ
республиканшыл@@
РЕСПУБЛИКАСЫ
РЕСПУБЛИКАСЫНДАҒЫ
РЕСПУБЛИКАСЫНЫҢ
республикашыл
республикашыл@@
Республикашыл@@
ресур@@
ресурс
ресурс@@
РЕСУРСТАР
рет
рет@@
Рётенбах
ретте@@
реттел@@
реттелме@@
реттеу@@
РЕТТЕУ
реттеуш@@
реттеуші@@
референду@@
Референду@@
референдум@@
рефор@@
реформа@@
Реформа@@
реформала@@
реформалан@@
рецессия
рецессия@@
РЕШАД
Реюньон
Ри
Ри@@
Рибейро
Рив@@
Ривэ
Ривэ@@
Риг@@
Рига@@
Рид
Ридж
Риджфилд
Ридинг
риз@@
ризашылығ@@
Рикардо
Риккенбах
Рико
Риман
РИНАТ
Рио
Рио-де-Жанейро
Рит@@
риторика@@
риторикалық
Рихард
Ричард
Ричланд
Ричлэнд
Ричмонд
рім
рін
РМК
РНҚ
Ро
Ро@@
Роб
Роб@@
Роберт
РОБЕРТ
Роберто
Робертс
Робин
Робинсон
робо@@
робот
робот@@
Робот@@
робототехник@@
РОГОВ
Рогофф
Роденбах
Родж@@
Роджэрс
Родион
Родригес
Родриго
Родрик
Родрик@@
Рож@@
Рождество
Роз@@
РОЗА
Розенхай@@
Ройт
рок
Рок
Рокавэ@@
Роквилл
Рокка-д
Рокки
Рокпорт
Роксбюри
Рокфо@@
рол@@
Ролан
ролик@@
Роллинг
роль
Рольф
Ром@@
роман@@
Роман
Роман@@
РОМАН
Романов@@
Романтиз@@
Ромео
РОМСИ
Рон@@
Рональд
Рорбах
Рорберг
Рос@@
Росбах
Росдорф
Роснефть
Росс
Росси
Ростислав
Ростов
Росток
Рот
Ротенбург
Роу@@
Роуз
Роус
рохиндж@@
Рохиндж@@
рохинджа@@
Рош
рө@@
рөл
рөл@@
ру@@
Ру@@
Руан@@
Рубин
рубль
рубль@@
Рувр@@
Руд
Руденко
Рудольф
Рузвельт
Рузимурадов
Румыния
Румыния@@
Руперт
рупи@@
Русвэлт
Руслан
РУСЛАН
РУСТАМ
рух
рух@@
рухани
Рухани
Рухани@@
РУХАНИ
Рүсте@@
РҮСТЕМ
рұқс@@
рұқсат
РФ
рым
рын
Рысбеков
Рэ@@
Рэд
Рэймонд
Рэйчел
рэнкинг@@
Рю@@
Рюти
с
с@@
С
са
са@@
Са@@
Саб@@
саба@@
сабағ@@
сабақ@@
сабақтас
сабақтастық@@
Сабин@@
сабырл@@
Саванн@@
Савойя
саға@@
сағат
сағат@@
Сағд
Сағынтаев
Сад
садақ
Саддл
Садово
саз
саз@@
Саз
Саз@@
сазг@@
сазгер@@
Саид
сай@@
Сай@@
сайл@@
сайла@@
Сайла@@
сайлан@@
сайлау@@
Сайлау@@
сайлауа@@
сайлаушы@@
Сайлаушы@@
Саймон
Сайра@@
Сайрағыш
сайрақ
сайрақ@@
сайт@@
Сайт
сайын
сайынғ@@
САЙЫРОВ
сайыс
сайыс@@
Сайыс
Саксония
Саксония-Анхальт
сақ
сақ@@
Сақ@@
сақада@@
Сақина@@
сақта@@
сақтал@@
сақталма@@
сақтандыр@@
Сақтандыр@@
сақтандыру@@
сақтау@@
САҚТАУ
САҚТАУШЫСЫ
сақшы@@
сал@@
Сал@@
сала
сала@@
Сала@@
салалар@@
салалық
Салалық
саламандра@@
Саламанк@@
Салах
Салвадо@@
Сале@@
Сали@@
Салинас
Салисбюри
салқын@@
салқынқандылық@@
салма@@
салмағ@@
салмақ@@
Салман
Салман@@
Саломея
Салон
салт
салт@@
салтан@@
салтана@@
Салтана@@
салтанат
САЛТАНАТ
салт-дәстү@@
салт-дәстүр@@
салт-жора@@
салу@@
салы@@
салығ@@
салық
салық@@
Салық
Салық@@
салым@@
салын@@
салынба@@
салыс@@
салыстыр@@
салыстырмал@@
Салыстырмал@@
салыстырмалылық
Сальвадо@@
сальдо@@
сам
Сам@@
Сама@@
САМАЛ
Самани
Самар@@
Самарқанд
САМАШЕВ
самбо
Сами
Сами@@
самми@@
саммит
саммит@@
Саммит
Самнэ@@
Само@@
САМОЙЛЕНКО
Самойлович
Самуилович
Самұрық-Қаз@@
Самыр@@
сан
сан@@
Сан
Сан@@
САН
сана@@
Сана@@
санағ@@
санал@@
Санал@@
саналма@@
санат
санат@@
Санат@@
САНАТ
санаул@@
Сан-Бент@@
Санд
Сандаски
Сандерс
Сандро
сандуғаш
сандуғаш@@
САНДУҒАШ
Санж@@
Сан-Клемен@@
Санкт-Галлен
Санкт-Мартин
Санкт-Петербо@@
Санкт-Петербург
санкция
санкция@@
Санкция@@
Сан-Марино
Сан-Никола@@
Сан-Паул@@
Сан-Педр@@
Сан-Себастьян
Сант
Санта-Барбар@@
Санта-Изабел
Санта-Катарин@@
Санта-Крус
Санта-Лузия
Санта-Мария
Сантарен
Санти
Сан-То@@
Сантос
Сантош
Санту-Андр@@
Сантьяго
Сан-Франсиск@@
Сан-Франциско
Санчес
саң
саңлақ@@
саңырауқұлақ
саңырауқұлақ@@
сап@@
Сап@@
сапа@@
сапал@@
сапар@@
САПАР
Сапиенц@@
сар@@
Сар@@
Сара@@
САРАБЕКОВ
Сараго@@
сарай@@
Сарай@@
Сарайшық
сарала@@
саралан@@
сараң@@
сарап@@
сарапта@@
сараптама@@
сараптамалық
сарапш@@
Сарапш@@
сарапшы@@
Сарапшы@@
САРАПШЫ
САРАПШЫСЫ
Саратов
сарбаз@@
САРКИСЯН
сарқ@@
сарқыл@@
сарқылма@@
сарқыра@@
Сарри
САРТАЕВ
Сарыағаш
Сарыар@@
САРЫБАЙ
Сарыбас
сарықас
сарышұнақ
сат@@
Сат@@
Сатаев@@
сату@@
САТУ
Сатурн
сатушы@@
саты@@
сатыл@@
сатылым@@
сауал
сауал@@
сауална@@
Сауална@@
сауалнама@@
Сауалнама@@
сауаттылығ@@
сауаттылық
сауаттылық@@
Сауд
сауда@@
Сауда@@
САУДА
саудагер@@
саудала@@
саудалас@@
САУДА-ӨНЕРКӘСІП
сауда-са@@
Сауда-са@@
сауда-саттығ@@
сауда-саттық@@
сауда-экономик@@
сауда-экономикалық
Сауда-экономикалық
Саудия
Саудия@@
саудиялық@@
Сауран
Саутгемптон
сауы@@
Сауы@@
сауығ@@
сауықтыр@@
Сауытбаев@@
Сах@@
Сахар@@
Сахих
сахн@@
Сахн@@
сахна@@
Сахна@@
сахнала@@
сахналан@@
сая@@
саябағ@@
саябақ@@
Саяқба@@
Саян
саяс@@
саяса@@
саясат
саясат@@
Саясат
Саясат@@
САЯСАТ
саясатк@@
саясаткер@@
Саясаткер@@
САЯСАТТАНУ
саясаттануш@@
саясаттанушы@@
САЯСАТТАНУШЫ
САЯСАТЫ
саяси
Саяси
САЯСИ
Саятшылық
саяхат
саяхат@@
саяхатта@@
саяхатш@@
саяхатшы@@
Саяхатшы@@
САЯХАТШЫ
сә@@
Сә@@
СӘБИТОВ
Сәдуақасов@@
сәйкес
сәйкесінш@@
Сәйкесінш@@
сәйкессіздік@@
сәйкестендір@@
сәл
Сәл@@
сәлем
сән
Сән
СӘН
сән-салтана@@
сәт
сәт@@
Сәтбаев
сәтсіздіг@@
сәтсіздік@@
сәуі@@
Сәуі@@
сәуір-маус@@
сәул@@
Сәул@@
сәуле@@
СӘУЛЕ
сәулелен@@
сәулет
сәулет@@
Сәулет
СӘУЛЕТ
сәулетш@@
Сәулетш@@
сәулетші@@
СӘУЛЕТШІСІ
Свазиленд
Светлан@@
СВЕТЛАНА
Сво@@
Свобо@@
СДЫҚОВ
се
се@@
Се
Се@@
себ@@
Себастьян
себе@@
Себеб@@
себебі
себеп@@
себепші@@
себет@@
Сев@@
Севилья
сегізінш@@
сегмент@@
сегментте@@
Сегр@@
Седжвик
Седжуик
сез@@
Сез@@
Сези
сезім@@
сезін@@
сей@@
сейіл@@
Сейнт
Сейфуллин
Сейфуллин@@
сек
сек@@
секір@@
Секіргіш
секс
сексуа@@
секто@@
сектор
сектор@@
Сел@@
селке@@
Сель
сем
Семантикалық
СЕМБИН
Семе@@
Семей@@
Семенович
Семёнович
семинар@@
Семс@@
сен
сен@@
Сен
Сен@@
Сена@@
Сена-Сен-Дени
Сенат
сенато@@
Сенато@@
сенатор@@
СЕНАТЫНЫҢ
Сен-Бартелеми
сенбе@@
Сен-Брис
Сен-Венсан
Сен-Викто@@
Сен-Дени
Сен-Дидь@@
сендір@@
Сенегал
Сенек@@
Сен-Жан-д
Сен-Жер@@
Сен-Жерв@@
Сен-Жермен-д
Сен-Жиль
Сен-Жорж
Сен-Жорж-д
Сен-Жульен
Сен-Жульен-д
Сен-Жуст
Сен-И@@
Сен-Ипполит
сенім
сенім@@
сенімд@@
СЕНІМДІ
сенімділіг@@
сенімділік
сенімділік@@
сенімсіз@@
сенімсіздік@@
Сен-Клеман
Сен-Кристоф
Сен-Л@@
Сен-Леж@@
Сен-Леон
Сен-Леон@@
Сен-Лоран
Сен-Лоран-д
Сен-М@@
Сен-Мар@@
Сен-Марити@@
Сен-Марсель
Сен-Мартен-д
Сен-Мартен-де-Ша@@
Сен-Ме@@
Сен-Мексан
Сен-Морис
Сен-П@@
Сен-Пал@@
Сен-Поль
Сен-При
Сен-Прив@@
Сен-Пь@@
Сен-Пьерр-д
Сен-Пьерр-дю-Мон
Сен-Реми
Сен-Семфорьян
Сен-Сер@@
Сен-Си@@
Сен-Сильвен
Сен-Симеон
Сен-Сиприян
Сен-Сов@@
Сент@@
Сент-Аман
Сент-Аньян
Сент-Елали
Сент-Елен
Сент-Елу@@
Сент-Женевьев
Сент-Киттс
Сент-Коломб
Сент-Мари
Сент-О@@
Сент-Обен-д
Сентр@@
Сент-Радегонд
Сентрал
Сент-Фу@@
сең
септес@@
септіг@@
сер@@
Сер@@
Серб
Серб@@
Сербия
Сербия@@
серв@@
Сервантес
серви@@
Сервон
Сергеевич
Сергеевн@@
СЕРГЕЙ
Серджио
Серджо
Серж
Серии
серия@@
серіг@@
серік
серік@@
Серік
СЕРІК
серікте@@
серіктес
серіктес@@
серіктестіг@@
серіктестік@@
СЕРІКТЕСТІК
Серіппел@@
серке@@
Серн@@
серп@@
серпіліс
Серр@@
серуенде@@
Серхио
Сес@@
Сесилия
сессия@@
Сеул
Сеул@@
СЕУЛ
Си
Си@@
СИ
Сиань
Сиверс
сигнал@@
Сидне@@
Сиен@@
СИК
сиқырл@@
Силв@@
Силвэ@@
Силикон
Сильв@@
символ@@
Символ@@
символикалық
Симметрия
Симон
симптом@@
симфония@@
симфониялық
Син@@
Сина@@
Синатр@@
Сингапу@@
Сингапур@@
СИНГАПУР
СИНГАПУРДЫҢ
Сингапурлық
Сингх
Синдзо
синдром@@
Синтакси@@
синтез@@
синтетикалық
Синтетикалық
Сиоукс
сип@@
сипа@@
сипат@@
сипатт@@
сипатта@@
сипаттал@@
сипаттама@@
Сипаттауыш
сирек
Сирек
СИРЕК
Сирен@@
Сирия
Сирия@@
сити
Сити
СИТИ
Сицилия
сиы@@
Сиы@@
сияқты
сі
сі@@
Сібі@@
сіз
сіз@@
Сіз
Сіз@@
сізге
сіздер
сіздердің
сіздің
Сілез
сілкін@@
сілкіні@@
сілкініс@@
сілте@@
сілтеме@@
СІМ
сін
сін@@
сің
сіңір@@
СІҢІРГЕН
СК
Скал@@
Скандинавия
Скиф
СКЛЯР
Скоки@@
Скорина@@
Скотт
скрипкаш@@
скрипкашы@@
СКРИПКАШЫ
Скумбрия
СҚО
славян
Славян
Славяново
Словакия
Словакия@@
СЛОВАКИЯ
Словения
Словения@@
Смағұлұл@@
смарт
Смарт
смартфон
смартфон@@
Смартфон@@
Смирнов
Смит
СМИТ
Смоленск
Смут-Хоули
снаряд@@
Сно@@
со@@
Со
Со@@
СО2
собо@@
Сов@@
Сове@@
совет
Совет
соғ@@
соғұрл@@
соғы@@
соғыл@@
соғыс
соғыс@@
Соғыс
Соғыс@@
соз@@
Созақ
созыл@@
созылмал@@
Созылмал@@
Сок
Соколово
Сократ
соқ@@
соққ@@
Соққ@@
соққы@@
соқпағ@@
соқпақ@@
соқтыр@@
соқы@@
Соқы@@
сол
сол@@
Сол
солай
солар
соли@@
СОЛИСІ
Соломон
Соломонович
Солон
солтү@@
Солтү@@
солтүстіг@@
солтүстік@@
Солтүстік@@
СОЛТҮСТІК
Солтүстік-батыс
Солтүстік-Қазақс@@
солшыл
солшыл@@
Солшыл@@
Соль
Соль@@
сом@@
Сом@@
сома@@
Сомали
сомда@@
Сомэрс
Сон
Сон@@
СОН
Сона@@
сонау
сонда
сондай
сондай-ақ
Сондай-ақ
Сондық@@
сондықтан
сонша
соншалық
соншалық@@
сонымен
соң
соң@@
Соң@@
соңғ@@
Соңғ@@
Сооронба@@
Сопылық
сор@@
Сор@@
сора@@
сорғыш@@
Сорос
СОСПАНОВА
сот
сот@@
Сот
Сот@@
СОТ
Сото
СОТЫНЫҢ
Соуз@@
Соус
Софи
София
социал-демократ@@
социал-демократиялық
Социал-демократиялық
Социали@@
социализ@@
социалис@@
социология@@
Сочи@@
сөз
сөз@@
Сөз
Сөз@@
сөздіг@@
сөздік@@
сөйл@@
сөйле@@
сөйлес@@
сөйлет@@
сөйт@@
Сөйт@@
сөмке@@
сөре@@
Спайс@@
Спар@@
Спаркс
Спартак
спект@@
спектакл@@
спектакль
спектакль@@
Спектрлік
Спенс@@
Спи@@
СПИД-@@
спик@@
спор@@
Спор@@
спорт
спорт@@
Спорт
СПОРТ
спортш@@
спортшы@@
Спринг
Спрингдэйл
Спрингс
Спрингфилд
спутник@@
С.СЕЙФУЛЛИН
Ст@@
ставк@@
ставка@@
Ставрополь
стагнация
стагнация@@
стадио@@
стадион
стадион@@
Сталин
Стамбул
Стамбұл@@
стандар@@
Стандар@@
стандарт
стандарт@@
стандартта@@
Станислав
станог@@
станса@@
станция
станция@@
СТАНЦИЯСЫНЫҢ
Старк
старта@@
стартап@@
стартапшы@@
статистик@@
Статистик@@
статистика@@
статистикалық
Статистикалық
статус
статус-кво@@
Стаффорд
Стенли
Степан
Степанович
Стерлинг
Стефан
Стефани
Стефано
Стефаново
Стив
Стивен
СТИВЕН
стил@@
стиль
стиль@@
Стиль
стипендия@@
Стокбридж
Стокголь@@
Стоктон
Стоун
стра@@
стратегия
стратегия@@
Стратегия@@
стратегиялық
Стратегиялық
СТРАТЕГИЯЛЫҚ
Стру@@
студен@@
студент
студент@@
Студент
СТУДЕНТ
СТУДЕНТІ
студия@@
Стэйт
Стэнли
Стэнфорд
Стюарт
су
су@@
Су
Су@@
СУ
суар@@
субсидия
субсидия@@
субсидияла@@
субъекті@@
сувере@@
Суворов
судья@@
Судья@@
сульфа@@
Сун
Сунь
СУНЬ
суп@@
Суперио@@
Суперкубог@@
суре@@
сурет
сурет@@
Сурет
Сурет@@
суретш@@
Суретш@@
суретші@@
СУРЕТШІ
СУРЕТШІЛЕР
Сурина@@
сус@@
сусын@@
сусында@@
суы@@
суық
сү@@
сүбел@@
сүз@@
сүзг@@
сүзгі@@
сүй@@
Сүй@@
сүйе@@
сүйег@@
сүйек
сүйек@@
Сүйек
Сүйек@@
сүйен@@
сүйік@@
сүйре@@
сүйсін@@
Сүлей@@
СҮЛЕЙМЕН
Сүлейменов
СҮЛЕЙМЕНОВ
сүндет@@
Сүндет
Сүндет@@
сүңгуі@@
Сүңгуі@@
сүр@@
Сүр@@
сүре@@
сүрін@@
сүт
Сүт
сүтқоректі@@
Сүтқоректі@@
Сүтті@@
сұ@@
Сұ@@
сұғ@@
сұйытыл@@
сұқ@@
сұқсы@@
сұл@@
Сұл@@
сұлтан@@
СҰЛТАН
СҰЛТАНҒАЗИН
сұлтандығ@@
СҰЛТАНОВ
сұлулығ@@
сұлыкеш
сұлыкеш@@
сұр@@
сұра@@
сұрақ
сұрақ@@
Сұрақ
сұран@@
сұраны@@
сұраныс
сұраныс@@
Сұраныс
сұрапыл
сұраушы@@
сұрқарлығаш
сұрыпта@@
сұхб@@
сұхбат
Сфералық
схе@@
схема@@
сценари@@
сценарий@@
сценарийші@@
съез@@
съезд
сы
сы@@
Сы@@
сыбайлас
Сығанақ
сыз
сыз@@
сыздар
СЫЗДЫҚОВ
сызығ@@
сызық@@
Сызық@@
сый@@
сыйақ@@
сыйақы@@
сыйл@@
сыйла@@
сыйлығ@@
сыйлық
сыйлық@@
сыйлықақ@@
сыйма@@
сыйымдылығ@@
сылта@@
СЫМБАТ
сын
сын@@
Сын
сына@@
сынағ@@
сынақ
сынақ@@
сынаушы@@
сындарл@@
сыни
сын-қа@@
сын-қатер@@
сын-тегеурін@@
сыншы@@
сынып@@
сың
сың@@
сыңа@@
сыңайл@@
сыңаржақ
сыр@@
сырғана@@
Сырдария
сырт
сырт@@
сыртқ@@
Сыртқ@@
СЫРТҚЫ
СЫРЫМ
Сьерр@@
Сэ@@
Сэйнт
Сэмюэл
Сэндвич
Сэнди
Сэнт@@
Сю@@
Сюрвиль
Сянь
Сяо
Сяопин
т@@
Т
та
та@@
Та@@
таб@@
таба@@
табан
Табан
табиғ@@
табиға@@
Табиға@@
табиғат
табиғат@@
Табиғат
табиғи
Табиғи
ТАБИҒИ
табы@@
табыл@@
ТАБЫЛДИЕВ
табылма@@
табыс
табыс@@
Табыс
табыс-бейтара@@
табыста@@
табыстал@@
табыстылығ@@
табыстылық
тағ@@
Тағ@@
таға@@
тағайында@@
тағайындал@@
тағам@@
Тағам@@
тағанақ
тағды@@
Тағды@@
тағдыр@@
тағы
тағыл@@
тағылымдама@@
Тадеуш
таз@@
Таз@@
тазала@@
тазарт@@
Таиланд
Тай@@
Тайвань
Тайвань@@
тайдыр@@
Тайланд
Тайланд@@
Таймс
тайпа@@
ТАКЕО
тактик@@
тактика@@
тақ@@
тақта@@
тақыр@@
тақыры@@
тақырыб@@
тақырып@@
Тақырып@@
тал@@
Тал@@
тала@@
Тала@@
талаб@@
талан@@
талант
талант@@
талап@@
талас@@
Талас
Талғ@@
талғам@@
Талғат
ТАЛҒАТ
талда@@
талдама@@
талдамашы@@
талдау@@
талдаушы@@
Талдықор@@
Талиб
Талибан
талқ@@
талқанда@@
талқандал@@
талқы@@
талқыла@@
талқылан@@
талқылау@@
талпын@@
талпыныс
талшығ@@
Тальхай@@
Там@@
тамақтан@@
таман
ТАМАРА
тамаш@@
тамашал@@
тамашала@@
тамсан@@
тамшылат@@
тамы@@
тамыз@@
тамыр@@
тан
тан@@
Тан
Тан@@
танго
Танде@@
танды@@
Танзания
тани@@
танк@@
Танк
Танкі@@
Танн@@
таны@@
таныл@@
таным@@
танымал
Танымал
танымалдылығ@@
таныс
таныс@@
таныстыр@@
таныстырыл@@
таныстырылым@@
таныт@@
таң@@
таңба@@
таңбал@@
таңбала@@
таңғ@@
таңғажай@@
Таңғажай@@
таңғал@@
таңғаларлық
таңда@@
Таңда@@
таңдал@@
Таңдамал@@
таңдау@@
таңдаул@@
Таңдаул@@
таңқал@@
таңқаларлық
таңқалдыр@@
таңсық
Таос
тап@@
ТАПИН
таппа@@
тапс@@
тапсыр@@
тапсырма@@
Тапсырма@@
тапсыры@@
тапсырыл@@
тапсырыс
тапсырыс@@
тапта@@
таптырмас
тапш@@
тапшылығ@@
тапшылық
тапшылық@@
тар
тар@@
Тар@@
тара@@
тараб@@
Тараз
Тараз@@
таразы@@
Тарақ
тарал@@
Тарантино
тарап@@
Тарап@@
тарат@@
таратпа@@
тарату@@
таратуш@@
таратушы@@
таратыл@@
Тарбағата@@
таргеттел@@
тариф
тариф@@
тарих
тарих@@
Тарих
Тарих@@
ТАРИХ
тарихи
Тарихи
ТАРИХИ
тарихи-мәдени
ТАРИХИ-МӘДЕНИ
тарихи-өлкетан@@
ТАРИХИ-ӨЛКЕТАНУ
тарихш@@
тарихшы@@
ТАРИХШЫ
ТАРИХЫ
тарқат@@
тармағ@@
тармақ@@
Тарн
Таро
тарт@@
тарта
тарту@@
ТАРТУ
тартыл@@
тартылыс
тартымдылығ@@
тартымдылық
тартыс@@
таршылық
тарыл@@
тарылт@@
тас
тас@@
Тас
таса@@
тасбақа@@
Тасжар@@
Тасқ@@
тасқын@@
тасп@@
ТАСС
таст@@
таста@@
тастаға@@
тас-тал@@
тастал@@
тастама@@
Тастанбеков
тастау@@
тасшыбжық
тасыма@@
тасымал
тасымал@@
тасымалда@@
тасымалдан@@
тасымалдауш@@
Тасымалдауш@@
тасымалдаушы@@
тат@@
Татарс@@
Татарстан@@
Татре@@
Татьян@@
ТАТЬЯНА
тау-@@
тау@@
Тау-@@
Тау@@
тауар
тауар@@
Тауар@@
тауарлық
ТАУ-КЕН
таул@@
Таул@@
тау-металлургия
Таун
Таунши@@
Тауфкирхен
тау-шаңғ@@
Тауық
Ташкент
Ташкент@@
тая@@
Тая@@
таяқша@@
таяу
Тәж
Тәж@@
тәжік
Тәжік
Тәжікс@@
Тәжікста@@
Тәжікстан@@
ТӘЖІКСТАН
тәжіри@@
тәжіриб@@
тәжірибе@@
тәжірибел@@
тәжірибелік
тәлімг@@
тәмамда@@
тән
тән@@
тәрбиеле@@
тәрбиелен@@
тәріз@@
тәрізді@@
тәрт@@
тәрті@@
тәртіб@@
тәртіп
тәртіп@@
тәс@@
тәсіл
тәсіл@@
тәсілде@@
тәсілдеме@@
тәтті@@
тәуе@@
тәуеке@@
тәуекел
тәуекел@@
тәуел@@
Тәуел@@
тәуелділіг@@
тәуелділік
тәуелділік@@
тәуелсіз@@
Тәуелсіз@@
ТӘУЕЛСІЗ
тәуелсіздіг@@
Тәуелсіздік@@
тәуліг@@
тәулік
Тәулік
Тбилиси
Тбилиси@@
тв
ТВ
Тверь
Твин
Твырдиц@@
те
те@@
Те
Те@@
теат@@
Теат@@
театр@@
ТЕАТР
ТЕАТРДЫҢ
театрландырыл@@
ТЕАТРЫ
ТЕАТРЫНЫҢ
теб@@
тег@@
Тегеран
тегеур@@
тегіс
Тегіс
теже@@
тез
Тез
тездет@@
тезірек
Тей@@
Тейло@@
тек
тек@@
Тек
Тек@@
теке@@
текетіре@@
текетірес
текетірес@@
тексер@@
тексеріл@@
тексеріс@@
тексеру@@
тектес
текш@@
тел@@
Тел@@
телеарн@@
телеарна@@
ТЕЛЕАРНАСЫНЫҢ
телевидени@@
Телевидени@@
телевидение@@
телевизия@@
телевизиялық
теледи@@
Теледи@@
тележүргізуші@@
телекоммуникация
телесериал@@
телефон
телефон@@
Телефон
телехикая
Тель-Авив
Тем@@
темек@@
темі@@
Темі@@
ТЕМІР
теміржол
теміржол@@
Темірта@@
температур@@
Температур@@
температура@@
тен
тен@@
Тен@@
тенденция
тенденция@@
Теннесси
Теннис
теннисші@@
тено@@
тең@@
Тең@@
Теңбіл
теңг@@
теңге
теңге@@
теңгелік
теңгер@@
теңгерім@@
теңгерімсіз@@
теңгерімсіздік@@
теңгермел@@
теңде@@
теңдестір@@
теңдеу@@
теңдіг@@
теңдік@@
теңе@@
теңестір@@
теңіз@@
ТЕҢІЗ
теңіз-саяхатшы@@
Теңізшевройл
теңсіз@@
Теңсіз@@
теңсіздіг@@
теңсіздік@@
Теңсіздік@@
Тео
Теодо@@
теоре@@
теорема@@
теория
теория@@
теориялық
Теориялық
Теофиль
теп@@
тепе-те@@
тепе-тең@@
тепе-теңдіг@@
тепе-теңдік@@
тепкіш
тер
тер@@
Тер@@
теракт
терапия
тербеліс@@
терге@@
тергел@@
тергеу@@
тере@@
Тере@@
терез@@
Терез@@
терезе@@
терең@@
Терең@@
тереңде@@
тереңдет@@
тереңдіг@@
тереңірек
тері@@
теріс
Теріс
Теріс@@
термин@@
терминал
терминал@@
терминология@@
Термодинамика@@
Термодинамикалық
термоядролық
Термоядролық
Тёрн@@
Территория-де-Бельфо@@
террориз@@
терроризм@@
террорлық
Теруэль
тесік
тестіле@@
тет@@
тетіг@@
тетік@@
Техас
Техник@@
техника
техника@@
техникалық
Техникалық
ТЕХНИКАЛЫҚ
технократ@@
ТЕХНОЛОГ
технология
технология@@
Технология
Технология@@
ТЕХНОЛОГИЯ
ТЕХНОЛОГИЯЛАР
ТЕХНОЛОГИЯЛАРЫ
технологиялық
Технологиялық
технопарк@@
ти@@
Ти@@
Тибет
тигіз@@
тигізбе@@
Тигран
ТИГРАН
тиек
тиел@@
тиесіл@@
тиімділіг@@
тиімділік
тиімділік@@
тиімдірек
тиіс
тиіс@@
тиісінш@@
Тиісінш@@
тиіспе@@
Тиллерсон
Тимирязев
Тимо@@
Тимоти
Тимофеевич
Тиму@@
ТИМУР
тип@@
Типтон
Тиршенройт
Тит
Титаник
Тифенбах
Тихомиров
ті
ті@@
Ті@@
тіг@@
тіз@@
Тіз@@
тізбег@@
тізбек@@
Тізбек@@
тізг@@
тізгін@@
тізім@@
Тізім@@
тізімде@@
тік
тік@@
Тік
тікеле@@
Тікеле@@
тікте@@
тікұшақ
тікұшақ@@
Тікұшақ
тіл
тіл@@
Тіл
Тіл@@
ТІЛ
тілдер@@
ТІЛДЕРДІ
тілдес
тіле@@
тілег@@
тілек@@
ТІЛЕШОВ
ТІЛІ
тілтанушы@@
тілш@@
тілші@@
ТІЛШІСІ
тім
тін
тіні
тің
тір@@
тіре@@
тірег@@
тірел@@
тірілт@@
тірк@@
тірке@@
тіркел@@
тіршілік
Тіршілік
тіс
тіс@@
Тіс
тісті@@
ТКШ
ТМД
ТМД-@@
Т.Мэй@@
то@@
То
То@@
тоб@@
Тобыл
ТОБЫЛ
ТОБЫНЫҢ
Того
тоғ@@
ТОҒЖАНОВ
тоғызынш@@
тоғыс@@
тоғыстыр@@
тоз@@
той@@
тойла@@
тойлан@@
тойтарыс
Токамак
Токантинс
Токвиль
Токио
Токио@@
тоқ@@
Тоқ@@
ТОҚАЕВ
тоқса@@
тоқсан
тоқсан@@
тоқт@@
тоқта@@
тоқтал@@
тоқтат@@
тоқтатпа@@
тоқтатыл@@
тоқтау@@
тоқылдақ
тоқылдақ@@
тоқыра@@
тоқырау@@
тол@@
толғандыр@@
Толедо
толқ@@
Толқ@@
толқу@@
толқы@@
толқын@@
толма@@
Толсто@@
толтыр@@
толығ@@
толық
толық@@
Толық
толықта@@
толықтыр@@
толықтыру@@
том@@
томаға-тұйықтық@@
Томас
ТОМАС
ТОМОТЕРАПИЯ
Томпсон
Томск
Томсон
тона@@
Тонг@@
Тони
тонна
тонна@@
тоннада@@
тоңазытқыш@@
топ@@
Топ@@
ТОП
топта@@
топтама@@
топтас@@
топтастыр@@
топтастырыл@@
топырағ@@
топырақ
топырақ@@
Топырақ
Топырақ@@
тор@@
Тор@@
тора@@
тораб@@
торап@@
торғай@@
Тори@@
Торо
Торонто
Торпедо
Торре-@@
Торрес
Торси
тосқауыл
тосқауыл@@
тоста@@
тосын@@
Тот
Тоф@@
тө@@
Тө@@
төбе@@
төз@@
төл
Төл
Төл@@
төле@@
Төле@@
төлем@@
төлеме@@
төлен@@
төленбе@@
төлеу@@
төлеуші@@
төмен@@
төменг@@
Төменг@@
төменде@@
төмендет@@
төмендету@@
төмендеу@@
төмендіг@@
төменірек
төн@@
төндір@@
төндірме@@
төңірег@@
төңірек@@
төңкері@@
төңкеріс
төңкеріс@@
төр@@
төра@@
төраға@@
Төраға@@
төрағалығ@@
төрағалық
төрағалық@@
ТӨРАҒАСЫ
ТӨРАҒАСЫНЫҢ
төрайым@@
ТӨРАЙЫМЫ
төрал@@
ТӨРЕБЕКОВА
төрт
төрт@@
Төрт
төрте@@
төртінш@@
Төртінш@@
Төртінші@@
төрткүл
төрттіг@@
төсел@@
төсем@@
төте@@
төтенш@@
Төтенш@@
ТӨТЕНШЕ
Тра@@
трагедия@@
Трай@@
тракта@@
тракто@@
Трам@@
Трамп@@
ТРАМП
Трампономик@@
Трампономика@@
транзакция@@
транзакциялық
транзи@@
Транзи@@
транзисто@@
транзит
транзит@@
Транзит
Транс
трансатлантикалық
Транскаспи@@
транспарен@@
транспаренттілік
трансплантация@@
транспор@@
транспорт
ТРАНСПОРТ
Транс-Тынық
трансұл@@
Трансұл@@
трансф@@
трансфер@@
трансформато@@
трансформация
трансформация@@
трансформацияла@@
Трансценден@@
трансшекаралық
Трансшекаралық
транш@@
Трапани
Траунштайн
трафиг@@
ТРАЯН
Тре@@
тренд
тренд@@
тренинг@@
Трентон
Три
Три@@
триллион
триллион@@
триллионда@@
Тринидад
Триунф@@
Триффин
трлн
трлн.
Тро@@
Тропик@@
Троцки@@
Троя
ТРР
труп@@
ТРУППАСЫНЫҢ
Трэнтон
ту
ту@@
Ту
Ту@@
Тувал@@
туғыз@@
тудыр@@
тудырма@@
тудырт@@
туит
туит@@
Туит@@
Тул@@
Тулуз@@
Тунис
тур@@
Тур@@
тура
тура@@
туралы
Турандот
Тургенев
тури@@
Тури@@
туриз@@
Туриз@@
туризм@@
ТУРИЗМ
ТУРИЗМІ
Турин
турис@@
Турис@@
турист
ТУРИСТ
ТУРИСТЕРІ
ТУРИСТІК
Турк@@
турни@@
турнир@@
Турнэ@@
туы@@
туын@@
туынд@@
туында@@
туынды@@
туып-өс@@
туыс@@
тү@@
Тү@@
түб@@
түбег@@
түбегейл@@
түбек@@
түбі@@
түбір@@
түгел
түгелде@@
түз@@
түзе@@
түзет@@
түзету@@
түй@@
түйін@@
түйіс@@
түйсіг@@
түйтк@@
Түк@@
түкпі@@
түкпір@@
түкпір-түкпі@@
түкпір-түкпір@@
түле@@
ТҮЛЕГІ
түлек@@
ТҮМЕН
түн
түн@@
түнг@@
Түнг@@
Түпк@@
түпкілік@@
түпнұсқа@@
түр
түр@@
Түр@@
түрік
түрік@@
Түрік
Түрік@@
Түрікменс@@
Түрікменстан@@
ТҮРІКМЕНСТАН
түрк@@
Түрк@@
Түркия
Түркия@@
ТҮРКИЯ
ТҮРКИЯДАҒЫ
ТҮРКІ
Түркіменс@@
Түркіс@@
Түркістан@@
ТҮРКІСТАН
ТҮРКІТАНУШЫ
түркітілдес
Түркітілдес
Түркменбаш@@
Түркменс@@
Түркменстан@@
ТҮРКСОЙ
түрл@@
Түрл@@
түрлендір@@
түрлілік
түрлі-тү@@
түрме@@
түртк@@
түршігерлік
түс
түс@@
Түс
Түс@@
түсім@@
түсін@@
түсінбе@@
түсіндір@@
түсіндірме@@
түсініг@@
түсінік
түсінік@@
түсінікте@@
түсіну@@
түсір@@
түсіріл@@
түскенде@@
түспе@@
түсу@@
түтін@@
тұ@@
Тұ@@
тұжы@@
тұжырым@@
тұжырымда@@
тұжырымдама@@
тұз
тұз@@
Тұз
Тұз@@
тұйықтал@@
тұқ@@
тұқым
тұқым@@
тұқымда@@
тұқымдас
тұқымдас@@
тұқырт@@
тұл@@
Тұл@@
тұлға@@
Тұлға@@
Тұлп@@
тұм@@
Тұма@@
тұмсық@@
тұн@@
тұншығ@@
тұншықтыр@@
тұңғыш
Тұңғыш
ТҰҢҒЫШ
тұр
тұр@@
Тұр@@
тұрақ@@
Тұрақ@@
тұрақсыз@@
тұрақсыздандыр@@
тұрақсыздығ@@
тұрақсыздық@@
тұрақта@@
тұрақтандыр@@
тұрақты@@
ТҰРАҚТЫ
тұрақтылығ@@
тұрақтылық
тұрақтылық@@
Тұрақтылық
Тұран
тұрарлық
тұрғ@@
Тұрғ@@
тұрғанда@@
тұрғы@@
тұрғыз@@
тұрғызыл@@
тұрғын@@
Тұрғын@@
ТҰРҒЫНЫ
тұрлау@@
тұрм@@
Тұрм@@
тұрма@@
тұрмы@@
тұрмыс
тұрмыс-тіршіліг@@
тұру@@
ТҰРЫСБЕК
тұс@@
тұса@@
тұсаукес@@
тұспа-тұс
тұт@@
тұтан@@
тұтарлық
тұтас
тұтаста@@
тұтастығ@@
тұтқы@@
тұтқын@@
тұтыл@@
тұтын@@
Тұтын@@
тұтыну@@
тұтынуш@@
Тұтынуш@@
тұтынушы@@
Тұтынушы@@
тұтынушылық
Тұтынушылық
тхэквондошы@@
ты
ты@@
Ты@@
Тыв@@
тығыздығ@@
тығырық@@
тый@@
тық
тықпала@@
тым
тын
тын@@
тынығ@@
Тынық
Тыныс
тыныш
тыныштық@@
тың
тың@@
тыңайтқыш
тыңайтқыш@@
тыңда@@
тыңдарман@@
тыр@@
тырн@@
Тырна@@
тырыс@@
тыс
тысқ@@
тыш@@
Тыш@@
Ть@@
Тэйло@@
Тэтч@@
Тюбин@@
Тюр@@
Тюрингия
Тяньцзинь
Тянь-Шань
у
у@@
У
Уа@@
уағдала@@
уағдаластық@@
Уаз@@
уай@@
Уайт
уайымда@@
уақы@@
уақыт
уақыт@@
Уақыт
уақытш@@
Уақытш@@
УАҚЫТША
уақытыл@@
Уатэрвилл
уәде
уәде@@
Уәлиханов
Уб@@
Уган@@
УЕФА
Уикипедия
Уикипедия@@
Уикипедияш@@
Уилбу@@
Уилсон
Уилья@@
УИЛЬЯМ
Уильямс
украин
Украин
Украин@@
Украина@@
УКРАИНА
УКРАИНАДАҒЫ
УКРАИНАНЫҢ
ул@@
Ул@@
УЛДИС
Ульрих
Ум@@
Универсиа@@
университ@@
Университ@@
университе@@
Университе@@
университет
университет@@
Университет
Университет@@
УНИВЕРСИТЕТІ
УНИВЕРСИТЕТІНІҢ
Уо@@
Уол@@
Уолл-стрит
Уолл-стрит@@
Уолт
Уоррен
Уотсон
Ур@@
уран
Уран
Урб@@
Урбан@@
УРБАН
Урбанизауция
урбанизация
урбанизация@@
Урбах
Урбино
Уругва@@
Ус@@
Утик@@
учаске@@
УЧИЛИЩЕНІҢ
ушығ@@
ушықтыр@@
Уэйн
Уэл@@
Уэллс
Уэльв@@
Уэльс
Уэск@@
Уэсти
Ү
үгіт-насиха@@
үгіт-насихат
Үгіт-насихат
үгітте@@
үде@@
үдері@@
үдеріс
үдеріс@@
үдет@@
үз@@
Үз@@
үзбе@@
үздік@@
Үздік@@
үзіл@@
үзіліс
үзіліс@@
үй
үй@@
Үй
Үй@@
үйір@@
ҮЙІРМЕСІНІҢ
үйлес@@
үйлеспе@@
үйлестір@@
үйлестіру@@
үйлестіруш@@
ҮЙЛЕСТІРУШІСІ
үйре@@
үйрек
үйрек@@
үйрен@@
үйреншік@@
үйрет@@
үйрету@@
үк@@
үкім@@
Үкім@@
үкіме@@
Үкіме@@
үкімет
үкімет@@
Үкімет
Үкімет@@
үкіметаралық
Үкіметаралық
үл@@
Үл@@
Үлб@@
үлг@@
үлгер@@
үлгі
үлгі@@
Үлгі@@
Үлгілер-инфобокс@@
үле@@
үлес
үлес@@
үлестір@@
үлестіріл@@
үлестіру@@
үлкенірек
үмі@@
үміт
үміт@@
үміткер@@
үміттен@@
үн
үн@@
Үн@@
үнде@@
үндес
үндеу@@
үндіс@@
Үндіс@@
Үндіста@@
Үндістан@@
ҮНДІСТАН
үне@@
үнем@@
үнемде@@
үнемдегіш
үнемдел@@
үнемдеу@@
үнемшіл
Үңгі@@
Үр@@
үрд@@
үрді@@
үрдіс
үрдіс@@
үре@@
үрей@@
үрейл@@
үрейлен@@
үрейлендір@@
Үрж@@
үрмел@@
Үрмел@@
үс@@
үст@@
үсте@@
Үсте@@
үстел
үстел@@
Үстел
үстем@@
үстемақ@@
үстемдіг@@
үстемдік@@
үстеме@@
үстіміз@@
Үстіміз@@
үстір@@
үстірт
Үстірт
үш
үш@@
Үш
Үш@@
Үшбұрыш
үше@@
үшеу@@
үшін
үшінш@@
Үшінш@@
Үшінші@@
Үшқоңы@@
Үшсаусақ@@
Ұ
ҰАК
ұғ@@
ұғым@@
ұғын@@
ұғындыр@@
ұдай@@
ұж@@
ұжым@@
Ұжым@@
Ұз@@
ұзағырақ
ұзақ
ұзақ@@
Ұзақ
ұзақмерз@@
ұзақмерзім@@
ұзақтығ@@
ұзама@@
ұзамас@@
ұзарт@@
ұзын
ұзындығ@@
ұй@@
Ұй@@
ұйғар@@
ұйғарым@@
ұйғы@@
Ұйғы@@
ұйым
ұйым@@
Ұйым@@
ұйымдас@@
ұйымдастыр@@
ұйымдастыру@@
ҰЙЫМДАСТЫРУ
ұйымдастырушы@@
Ұйымдастырушы@@
ҰЙЫМДАСТЫРУШЫ
ҰЙЫМДАСТЫРУШЫСЫ
ұйымдастырыл@@
ҰЙЫМЫ
ҰЙЫМЫНЫҢ
ҰК
ҰКП
ҰҚ
ұқса@@
ұқсама@@
ұқсас
ұқсастық@@
ұл@@
Ұл@@
ұлан@@
Ұлан
ҰЛАН
ұлас@@
ұлға@@
ұлғай@@
ұлғайт@@
ұлғаю@@
ұлғая
ұлғая@@
ұлп@@
ұлт
ұлт@@
Ұлт
Ұлт@@
ұлтаралық
ҰЛТТАР
ҰЛТТЫҚ
ұлтүстілік
ұлтш@@
ұлтшыл
ұлтшыл@@
Ұлтшыл
ұлтшылдығ@@
ұлтшылдық@@
ҰЛЫ
Ұлыбритания
Ұлыбритания@@
ҰЛЫБРИТАНИЯ
ҰЛЫБРИТАНИЯНЫҢ
Ұлық@@
Ұлыта@@
ұмт@@
ұмтыл@@
ұмтылы@@
ұмтылыс@@
ұмыт@@
ұмытпа@@
ұмытыл@@
ұн
ұн@@
Ұн
ұна@@
ұнама@@
ұнат@@
ұр@@
ұра@@
ұран
ұран@@
ұрла@@
ұрпақ@@
Ұрық
ұс@@
ұсақ
ұста@@
ұстаз@@
Ұстаз@@
ұстан@@
ұстаным@@
ұсын@@
ұсыны@@
ұсыныл@@
ұсыныс
ұсыныс@@
Ұсыныс@@
ұт@@
ұтыл@@
ұтыс@@
ұш@@
Ұш@@
ұшақ
ұшақ@@
ұшқыш
ұшқыш@@
Ұшқыш@@
ұштас@@
ұштастыр@@
ұшыр@@
ұшыра@@
ұшырат@@
ҰЭМ
ұя
ұял@@
Ұял@@
Фа@@
Фабио
фабрика@@
Фав@@
Фаз@@
фаза@@
Фазалық
Фай@@
файл
файл@@
Файл
Файл@@
Файрвю
Файрфилд
Файэтт
факт
факт@@
факті@@
факто@@
фактор@@
ФАКУЛЬТЕТІНІҢ
Фалькенберг
Фалькенштайн
Фан
фанатиз@@
Фар@@
Фараде@@
Фарид
Фарм@@
фармацевтик@@
фармацевтикалық
Фармацевтикалық
Фармингтон
Фарс
ФАРХАД
ФАСС
Фати@@
фаун@@
фауна@@
Фаунтэйн
фаши@@
Фашиз@@
Фе@@
федера@@
Федера@@
федерация@@
Федерация@@
Федерациялық
ФЕДЕРАЦИЯСЫ
ФЕДЕРАЦИЯСЫНЫҢ
Федерико
Федо@@
Фёдо@@
Федоров
Федорович
Фёдорович
Федоровк@@
фейк
Фейсбук@@
Феликс
Фелип@@
Фелич@@
Фель@@
Фен
Фер@@
Фергюсон
Ферған@@
Фердинанд
фермер@@
Ферми
Фернандес
Фернандо
Ферр@@
Ферри@@
фестивал@@
ФЕСТИВАЛІ
ФЕСТИВАЛІНІҢ
фестиваль
фестиваль@@
Фестиваль
Фестиваль@@
ФЕСТИВАЛЬ
ФЕСТИВАЛЬГЕ
Фех@@
Фиджи
физик@@
Физик@@
физика@@
физикалық
Физикалық
физиология@@
Физиология
Фийон
Фийон@@
Фиқһ
Филадельфия
филантроп@@
Филдс
Фили@@
филиал@@
ФИЛИАЛЫНЫҢ
Филип@@
ФИЛИПП
Филиппи@@
Филиппин
Филиппин@@
Филли@@
Филлипс
филолог
филолог@@
филология@@
ФИЛОЛОГИЯ
философ
философ@@
философия
философия@@
Философия
ФИЛОСОФИЯ
Философиялық
филь@@
Филь@@
фильм@@
Фильм@@
финал@@
Финис@@
Финляндия
Финляндия@@
фир@@
Фир@@
Фирзен
фирма@@
фиска@@
ФИФА
Фицджеральд
Фиш@@
Фишбах
ФИШЛЕР
ФК
ФҚЖ
ФҚЖ-@@
Фл@@
Фламенко
Флат
Флери
Флинн
Флойд
Флор@@
флора@@
Флоренс
Флоренция
Флорес
Флори@@
Флориан
Флорэнс
Фо
Фо@@
Фокс
Фокус
Фоллс
Фолс
фолькло@@
фольклорлық
фон
Фон
Фон@@
фонд@@
Фонтен@@
фор@@
Форд
Форест
Форк
форм@@
форма@@
формат
формат@@
формула@@
Форст
Форт
фору@@
Фору@@
форум
форум@@
Форум@@
ФОРУМ
ФОРУМНЫҢ
ФОРУМЫ
Форххай@@
Форэст
Фос@@
Фосс
Фосфо@@
фото
фотограф@@
ФОТОГРАФ
фотокөр@@
фотосурет@@
ФОТОСУРЕТШІ
Фошань
Фошань@@
Фра@@
Фрайберг
Фран@@
франк
франк@@
Франк
Франк@@
Франклин
Франко
Франкофония
Франкфурт
ФРАНКФУРТ
Франс
Франсис
Франсиско
Франсу@@
Франц
Франциск
Франция
Франция@@
ФРАНЦИЯ
ФРАНЦИЯНЫҢ
француз
француз@@
Француз
Француз@@
ФРАНЦУЗ
Франческо
Франшвиль
Фре@@
Фред
Фредерик
Френ
Френель
ФРЖ
ФРЖ-@@
Фри
Фри@@
Фрибу@@
Фридо@@
Фридрих
Фрипорт
Фрисландия
Фройденштадт
Фрэмонт
Фрэнк
Фрэнсис
Фу@@
Фултон
Фуль@@
фун@@
фундамента@@
фундаментализ@@
функциона@@
функция
функция@@
Функция
Функция@@
фунт
Фунт
Фурь@@
футбол
футбол@@
Футбол
Футбол@@
футболшы@@
Фэрри
ха@@
Ха
Ха@@
хаб
хаб@@
Хаб@@
хабар@@
ХАБАР
хабарл@@
хабарла@@
хабарлағанда@@
хабарлама@@
хабарлан@@
хабарландыр@@
Хабаровск
Хаббард
Хаббл
Хабиб
ХАБЫНЫҢ
Хавь@@
Хаг
Хадж@@
ХАДЖАР
Хаджи
Хадис
Хадиш@@
Хадлэ@@
Хадсон
Хаз@@
ХАИРОВ
Хай@@
Хайбах
Хайденхай@@
Хайландс
Хайльбронн
Хайлэнд
хайуанат@@
ХАЙЫРОВ
хакер@@
хакерлік
хал@@
Халил
Халиф@@
халқ@@
Халқ@@
ХАЛҚЫ
халық
халық@@
Халық
Халық@@
ХАЛЫҚ
халықаралық
Халықаралық
ХАЛЫҚАРАЛЫҚ
Хам@@
Хамас
Хамбург
Хамз@@
Хамид
Хамилтон
Хамптон
хан
хан@@
Хан
Хан@@
ХАН
хандығ@@
ханзада@@
Ханкок
Ханн@@
Хановэ@@
Ханс
Хант
Хантингтон
Хань
ХАНЬХУЭЙ
хаос
Хар@@
Харбо@@
Харбург
Харвард
Харви
Харди
Хардин
Хармони
Харри
Харрис
Харрисон
Харт
Хартмансдорф
Хартфорд
Харьков
хас
Хасан
Хастингс
хат
хат@@
Хат@@
хатш@@
хатшы@@
ХАТШЫЛЫҒЫНЫҢ
ХАТШЫСЫ
ХАТШЫСЫНЫҢ
Хау@@
Хаузен
Хаус
Хафиз
Хачатурян
Хашогги
Хашогги@@
ХВҚ
ХВҚ-@@
Хе
Хе@@
Хей@@
Хейли
Хейтс
Хелен
Хён
Хендерсон
Хендрик
Хенрик
Хер@@
Хивэн
Хид
ХИКМЕТ
Хикори
Хилари
Хилл
Хиллари
Хиллс
Хиллсборо@@
Хиллсдэйл
Хильдбургхаузен
Хильдесхай@@
химик@@
химия
Химия
химиялық
Химиялық
хирургия
Хирургия
Хирургиялық
Хиршбах
Хиршберг
Хиршфельд
Хиу@@
ХҚО
Хло@@
хлори@@
хо@@
Хо
Хо@@
Хоббит
Хой@@
хок@@
Хок@@
хоккей@@
хоккейші@@
холдинг@@
Холл
Холланд
Холли
Холлис
Холмс
Холт
Хольдорф
Хольцмин@@
Хольцхай@@
Хомберг
Хон
Хопкинс
Хор@@
Хорбах
хорват@@
Хорват
Хорватия
Хорватия@@
Хорез@@
хореограф
хореограф@@
хореография
хореография@@
хореографиялық
Хорн
Хорст
Хорх@@
Хосров
Хоу@@
Хоф
Хофкирхен
Хоффман
Хохдорф
Хоэнфель@@
ХРИСТЕА
Христиа@@
христиан
христиан@@
Христиан
Христиан-демократиялық
Христов
хро@@
Хро@@
Хртковчи@@
Ху
Ху@@
Хуан
Хуго
Хузайф@@
Хулаг@@
Хулио
Хун@@
Хусейн
ХХ
ХХІ
Хью
Хьюстон
Хэброн
Хэвен
Хэйвен
Хэйвн
Хэйтс
Хэлен@@
Хэмилтон
Хэмптон
Хэндерсон
Хю@@
Хют@@
һә@@
Цезарь
Целл@@
Целль
цемент
цемент@@
Цемент
цензур@@
цензура@@
Цент@@
Церетели
цех
цех@@
Цзинь
Цзиньпин
Цзиньпин@@
Цзян
Цзянь
цик@@
цикл
цикл@@
Циндао
Циндао@@
Цинь
Цифрл@@
цифрландыр@@
Цифрландыр@@
цифрландырыл@@
цифрлық
Цифрлық
ЦИФРЛЫҚ
ЦСКА
Цуг
Цукерберг
Цукерберг@@
Цюрих
Чавес
Чад
Чайковски@@
Чайковский@@
Чан
Чапаев
Чарлз
Чарли
Чарльз
Чеви
Чезар@@
Челси
Челяб@@
ЧЕЛЯБІ
чемпио@@
чемпион@@
Чемпион@@
чемпиона@@
Чемпиона@@
чемпионат@@
ЧЕМПИОНЫ
Чен
Чен@@
ЧЕН
Чернигов
Черногория
Чёрч
Чес@@
Честэ@@
Чех
Чехия
Чехия@@
ЧЕХИЯ
Чехословакия
Чж@@
Чжан
ЧЖАН
Чжи
Чжо@@
Чикаго
Чили
Чили@@
Чилликос
Чо@@
Чон
ЧОН
Чосон
Чун
Чэйс
Чэлси
Чэнь
Чэс@@
Ш
ша@@
Ша@@
шаб@@
Шаб@@
шабу@@
шабуыл
шабуыл@@
шабыт
шабыт@@
шабыттандыр@@
Шавкат
шағ@@
Шағ@@
шағал@@
шағала@@
Шағала@@
Шағата@@
шағымдан@@
шад
Шай@@
Шайбал@@
Шайбани
шайқа@@
шайқас
шайқас@@
шақ
шақ@@
шаққа@@
шақты
шақша@@
шақшақ
шақы@@
шақыр@@
шақырт@@
шақырыл@@
шақырым@@
шал@@
Шал@@
Шалб@@
Шалғ@@
шалғай@@
шалдық@@
шалдыққан@@
Шалқ@@
шалшықш@@
Шаль@@
шам@@
Шам@@
шама@@
Шама@@
шамалы
Шамв@@
Шампо
Шан
Шан@@
Шантл@@
Шанха@@
Шанхай@@
ШАНХАЙ
шаңғ@@
Шаңғ@@
шапағ@@
шапан@@
шапқыншылығ@@
шар@@
Шар@@
шара@@
Шара@@
Шаран@@
Шаранта-Марити@@
шарап
Шардар@@
Шарль
Шарму@@
Шарни
Шарон
шарпы@@
шарт
шарт@@
шару@@
шаруа@@
ШАРУА
шаруашылығ@@
ШАРУАШЫЛЫҒЫ
ШАРУАШЫЛЫҒЫНЫҢ
шаруашылық
шаруашылық@@
Шаруашылық
шарш@@
Шарш@@
шарша@@
шарықта@@
шат@@
Шат@@
шатастыр@@
Шатену@@
Шатийон
шатқал@@
шатқаяқта@@
Шаты@@
шатыр
шах@@
Шах@@
Шахмат
ШАХРАТ
шаһ@@
Шаһ
Шаһ@@
шаһар@@
шаш@@
шашыра@@
шая@@
шаянтәрізді@@
Шаяхметов
Шә@@
Шәкә@@
шәкірт@@
шәкіртақ@@
Шәмш@@
Швайнфурт
Шварц@@
Швейцария
Швейцария@@
ШВЕЙЦАРИЯ
ШВЕЙЦАРИЯНЫҢ
Швеция
Швеция@@
ше
ше@@
Ше@@
шеб@@
Шеб@@
шебер@@
ШЕБЕР
ШЕБЕРІ
шеберліг@@
шеберлік
шеберлік@@
шеберхана@@
Шеванн
Шеврон
ШЕВРОН
Шевченко
шег@@
шегеле@@
шегер@@
шегерім@@
шегін@@
шегініс
Шегіргүл
шежіре@@
Шейх
шек
шек@@
Шек@@
шекар@@
Шекар@@
шекара@@
Шекара@@
шекаралас
шекаралық
Шекаралық
ШЕКАРАСЫ
шеккен@@
Шекспи@@
шекте@@
шектел@@
шектелме@@
шектеу@@
шектеул@@
Шемонаих@@
Шен@@
Шёнберг
шенеунік@@
ШЕНОЛ
Шень@@
шеңб@@
шеңбер@@
шер@@
ШЕРЗОД
Шери@@
шерт@@
шеру@@
ШЕСТАКОВ
шет
шет@@
Шет
шете@@
Шете@@
шетел
шетел@@
Шетел
Шетел@@
шетелдік@@
Шетелдік@@
ШЕТЕЛДІК
Шетк@@
шеш@@
Шеш@@
Шешель
Шешель@@
шешіл@@
шешілме@@
шешім
шешім@@
шешімін@@
шешпе@@
шешу@@
шешуш@@
ши@@
Ши
Ши@@
шиелен@@
шиеленіс
шиеленіс@@
Шиит@@
шикіза@@
шикізат
шикізат@@
Шикізат
шиқылдақ
Шил@@
Шир@@
Ширак
ширек
Ширек
шіл@@
Шіл@@
шілде@@
шірке@@
Шірке@@
шіркеу@@
Шіркеу@@
шкала@@
ШҚО
Шлат
Шлезвиг-Гольштейн
Шмидт
Шнай@@
ШНАЙДЕР
шо@@
Шо@@
ШОБ
шоғырлан@@
шоғырландыр@@
шок
шоқжұлдыз@@
шол@@
Шол@@
Шолпан
ШОЛПАН
шолпанкебіс
шолу@@
шолушы@@
Шон
шорт
Шорта@@
Шорэс
шот
шот@@
Шотабаев
ШОТАБАЕВ
Шотландия
шош@@
Шош@@
шошқа@@
шө@@
шөгінді@@
Шөже@@
шөжешымшық
шөл@@
Шөл
Шпикерманн
Шре@@
Шрек
Шри-Ланк@@
Шрюсбюри
шт@@
шта@@
штаб@@
штаб-пә@@
Штайн
Штайнах
Штайнбах
Штайнбург
Штайнфельд
Штарнберг
штат
штат@@
Штат@@
Штаттар@@
Штендаль
Штерн
Штраус
шу
Шу
Шу@@
шуағ@@
Шуг@@
Шульц
шуыл
шүйліг@@
шүре@@
Шұб@@
шұғыл
шұжық
шұңғы@@
шұңқы@@
шы@@
Шы@@
шыбы@@
шыбынш@@
шығ@@
Шығ@@
шығанағ@@
шығанақ@@
Шығанақ
шығар@@
Шығар@@
шығарма@@
шығармашыл
шығармашылығ@@
шығармашылық
Шығармашылық
ШЫҒАРМАШЫЛЫҚ
шығару@@
шығаруш@@
шығарушы@@
шығарыл@@
шығарылым@@
шығарынды@@
шығу@@
шығы@@
шығын@@
шығында@@
шығыс
шығыс@@
Шығыс
Шығыс@@
ШЫҒЫС
шыда@@
шыдама@@
шыдас
шық@@
шықпа@@
Шымбұлақ
Шымкент
Шымкент@@
шымшық
Шымшық@@
шымылдығ@@
шын
шын@@
Шын
Шын@@
шынай@@
Шынай@@
шынайылық@@
шындығ@@
Шындығ@@
шындық@@
шыншыл
ШЫНЫҚТЫРУ
шың@@
Шыңғырла@@
Шыңғыс
ШЫҢҒЫС
шыңда@@
Шыңжа@@
шырғалақ
шырқ@@
шырқа@@
шырқал@@
ШЫҰ
ШЫҰ-@@
Шэлби
Шэньси
Шэньчжэнь
Шэри@@
Шэрман
Шэффилд
-ы
-ы@@
ы
ы@@
Ы
Ыбыра@@
ығыс@@
ығыстыр@@
ыдыра@@
Ыдырысов
ЫДЫРЫСОВ
ыдыс
ыз@@
ық
ықпа@@
ықпал
ықпал@@
ықпалда@@
ықпалдастық@@
ықтима@@
Ықтима@@
ықтимал
ықтималдығ@@
ықша@@
ықыла@@
ықылас
ықылас@@
ыл@@
ылғалдылығ@@
ым
ым@@
ымыра@@
-ын
-ын@@
ын
ын@@
ынта@@
ынта-жіг@@
ынтал@@
ынталандыр@@
ынталандырма@@
ынталандыру@@
ынтымақ@@
ынтымақта@@
Ынтымақта@@
ынтымақтас@@
ынтымақтастығ@@
ЫНТЫМАҚТАСТЫҒЫ
ынтымақтастық@@
Ынтымақтастық@@
ЫНТЫМАҚТАСТЫҚ
ынша
ЫНЫҢ
ың
ың@@
ыңғайл@@
ып
ып@@
ыр@@
Ыр@@
ырғағ@@
ырықтандыр@@
ыс@@
Ысқақов
ЫСҚАҚОВ
Ысмайыл
Ыстамбұл
Ыстықкөл
ысыр@@
ысыра@@
Э
Эберсбах
Эберсберг
Эбол@@
эвакуация@@
Эван
Эванс
Эвертон
Эвинг
эволюция@@
эволюциялық
Эвон
Эгг
Эггендорф
Эге@@
Эдвард
Эдвардс
Эдвин
Эдг@@
Эдди
Эддивилл
Эден
Эдинбург
Эдмонтон
Эдмунд
Эдриан
Эдуард
ЭДУАРД
Эдуардо
Эжен
Эй@@
Эйвазл@@
ЭЙВАЗЛЫ
Эйвон
Эйнштейн
эйфория@@
Эквадо@@
Экваторлық
эко
экожүйе@@
экология
экология@@
Экология
экологиялық
Экологиялық
ЭКОЛОГИЯЛЫҚ
экономи@@
экономик@@
Экономик@@
экономика@@
Экономика@@
ЭКОНОМИКА
экономикалық
Экономикалық
ЭКОНОМИКАЛЫҚ
экономис@@
Экономис@@
ЭКОНОМИСІ
экономист
экономист@@
ЭКОНОМИСТ
Экрон
Эксе@@
эксклюзив@@
экспансия@@
экспедиция
экспедиция@@
Экспедиция
Экспедиция@@
ЭКСПЕДИЦИЯ
ЭКСПЕДИЦИЯСЫНЫҢ
эксперимен@@
эксперимент
эксперимент@@
ЭКСПО
ЭКСПО-@@
Экспо-2017
ЭКСПО-2017
экспозиция@@
экспонат
экспонат@@
экспор@@
Экспор@@
экспорт
экспорт@@
Экспорт
экспортта@@
экспорттал@@
экспорттауш@@
экспорттаушы@@
экспортшы@@
экстрема@@
экстремиз@@
экстремизм@@
экстремис@@
Эл
Эл@@
Эла@@
ЭЛАЗАР
Элбани
Элгин
Элдорадо
элект@@
Элект@@
электора@@
Электрлік
электро@@
Электро@@
электроник@@
Электроник@@
элемен@@
элемент@@
эли@@
Эли@@
Элизабет
Элизабэт
Элиот
элита@@
элиталық
Элк
Элктон
Элленберг
Эллсворс
Элм@@
Элтон
Эль
Эль@@
Эльменхорст
Эм@@
Эмб@@
Эмбо@@
Эмерсон
Эми
Эми@@
эмигрант@@
Эмилио
Эмиль
эмиссия
эмитент@@
Эмити
ЭММА
Эммануэль
Эммендин@@
Эмомали
эмоциона@@
эмоциялық
эмпатия
эмпирикалық
Эмр@@
Эн
Эн@@
энд
Энд@@
Энди
Эндрю
энергетик@@
Энергетик@@
энергетика@@
ЭНЕРГЕТИКА
энергетикалық
Энергетикалық
ЭНЕРГЕТИКАЛЫҚ
энергия
энергия@@
Энергия
ЭНЕРГИЯ
ЭНЕРГИЯСЫ
Энн
Энн@@
Энри@@
Энтони
Энфилд
энциклопедия
энциклопедия@@
эпидемия@@
Эр
Эр@@
Эрб@@
Эрвин
Эрдинг
ЭРЕН
Эри
Эрик
Эриксон
Эритрея
Эрих
Эрленбах
Эрнандес
Эрнест
Эрнст
Эро
эрозия@@
Эрос
Эррер@@
Эс@@
ЭСКАТО
Эссекс
Эссен
Эссонн@@
Эстейтс
Эстетик@@
Эстония
Эстония@@
эстра@@
Эстра@@
этик@@
Этик@@
этика@@
этикалық
этникалық
этно
этно@@
этноауыл
этнограф@@
этнографиялық
этномәдени
ЭТНОМӘДЕНИ
этносаралық
этнотуриз@@
Этнотуриз@@
Этьен
эфи@@
Эфи@@
Эфиопия
Эфиопия@@
эфир@@
эффек@@
эффекті@@
Эхин@@
Эхо
Эш
Эшбах
Эшенбах
Эшланд
Эшли
Эшлэнд
Эштон
ЭЫДҰ
ЭЫДҰ-@@
Ю
юа@@
юань
юань@@
Юань
Юб@@
Югославия
Юджин
Юзербокс@@
Юзеф
Юли@@
Юлиан
Юлиус
Юлия
ЮЛИЯ
Юн
Юн@@
Юнайтед
Юнг
ЮНЕСКО
ЮНЕСКО-@@
Юнивэрсити
Юнион
Юнионвилл
Юнити
Юнк@@
Юнус
Юр@@
Юрвиль
Юри@@
ЮРИЙ
юрисдикция
юрисдикция@@
Юрьевич
Юрьевн@@
ЮСЕФ
Юсуф
Ютландия
я
Я
Яв@@
яғни
Яғни
ядро@@
ядролық
Ядролық
Якоб
Яков
Яковлевич
Якуб
Ямайк@@
Ян
Ян@@
ЯН
Янг
Янович
Ярмаус
Ярослав
Ярославль
яру@@
Яс@@
Ясауи
Ясауи@@
Яссауи
Яцек